[PAD]	0
[UNK]	0
[BOS]	0
[EOS]	0
[SEP]	0
[CLS]	0
[MASK]	0
세요	-0
▁사	-1
▁좋	-2
▁있	-3
▁이	-4
▁거	-5
하는	-6
보세요	-7
▁그	-8
▁나	-9
▁아	-10
예요	-11
▁마	-12
▁사람	-13
▁좋아	-14
어요	-15
▁같	-16
▁거예요	-17
▁하	-18
▁생	-19
▁다	-20
▁어	-21
▁가	-22
▁안	-23
▁해	-24
▁수	-25
▁사랑	-26
네요	-27
▁연	-28
▁없	-29
니다	-30
▁생각	-31
▁자	-32
▁잘	-33
▁힘	-34
친구	-35
▁싶	-36
▁여	-37
봐요	-38
▁너	-39
▁많	-40
▁말	-41
▁만	-42
▁남	-43
▁것	-44
▁시	-45
는데	-46
▁내	-47
▁마음	-48
▁않	-49
▁너무	-50
아요	-51
▁기	-52
▁보	-53
▁지	-54
▁오	-55
▁바	-56
▁좋아하는	-57
▁더	-58
해보세요	-59
▁이별	-60
▁정	-61
▁연락	-62
▁헤	-63
하고	-64
▁일	-65
▁헤어	-66
▁짝	-67
▁있을	-68
▁고	-69
▁썸	-70
▁여자	-71
▁남자	-72
으면	-73
▁되	-74
▁힘들	-75
▁좋은	-76
▁모	-77
▁한	-78
나봐요	-79
▁알	-80
하지	-81
▁많이	-82
▁시간	-83
▁게	-84
▁사람이	-85
▁때	-86
▁상	-87
에요	-88
▁저	-89
으로	-90
▁무	-91
▁못	-92
▁친구	-93
▁건	-94
한테	-95
에서	-96
▁전	-97
▁주	-98
▁먹	-99
▁좀	-100
▁중	-101
▁결	-102
해요	-103
▁같아요	-104
까요	-105
겠어요	-106
▁부	-107
▁있어요	-108
▁싶어	-109
▁인	-110
▁대	-111
▁살	-112
▁조	-113
▁당	-114
▁받	-115
▁뭐	-116
하면	-117
▁선	-118
▁될	-119
▁제	-120
▁후	-121
▁오늘	-122
▁같아	-123
▁만나	-124
▁할	-125
하세요	-126
이에요	-127
하게	-128
▁괜	-129
▁걸	-130
▁끝	-131
겠네요	-132
주세요	-133
▁자신	-134
▁소	-135
에게	-136
▁이제	-137
▁미	-138
▁진	-139
▁드	-140
겠지	-141
▁들	-142
▁좋을	-143
습니다	-144
▁아니	-145
▁괜찮	-146
▁마세요	-147
▁필	-148
라고	-149
▁잊	-150
▁감	-151
▁있는	-152
▁마음이	-153
▁하는	-154
▁연애	-155
▁비	-156
게요	-157
▁내가	-158
▁필요	-159
친구가	-160
는게	-161
▁해보세요	-162
▁혼	-163
▁스	-164
▁왜	-165
▁모르	-166
▁공	-167
다면	-168
▁어떻	-169
▁예	-170
▁차	-171
▁집	-172
▁다른	-173
가봐요	-174
▁타	-175
▁행	-176
▁어떻게	-177
▁물	-178
▁짝남	-179
▁시간이	-180
▁헤어진	-181
▁날	-182
▁돼	-183
다고	-184
▁서	-185
▁신	-186
▁없어	-187
▁도	-188
▁애	-189
▁당신	-190
겠어	-191
해도	-192
▁방	-193
▁싶다	-194
겠죠	-195
▁관	-196
▁우	-197
▁다시	-198
사랑	-199
▁혼자	-200
▁했	-201
▁맞	-202
▁있어	-203
▁눈	-204
인데	-205
▁하고	-206
▁또	-207
▁결혼	-208
▁정말	-209
들이	-210
▁지금	-211
▁정리	-212
▁노	-213
▁잠	-214
▁수도	-215
▁재	-216
▁기다	-217
▁찾	-218
▁싫	-219
▁계	-220
▁중요	-221
▁참	-222
▁새	-223
▁그런	-224
▁준	-225
야지	-226
이네요	-227
할까	-228
▁행복	-229
▁조금	-230
▁따	-231
▁편	-232
▁확	-233
▁같이	-234
어보세요	-235
▁데	-236
▁위	-237
렇게	-238
▁것도	-239
▁놀	-240
▁언	-241
은데	-242
▁고민	-243
▁얼	-244
라요	-245
▁쉬	-246
▁아직	-247
▁추	-248
▁두	-249
▁피	-250
▁짝사랑	-251
▁먼	-252
▁의	-253
이라	-254
▁반	-255
▁자꾸	-256
▁달	-257
▁성	-258
지만	-259
지도	-260
▁준비	-261
보다	-262
▁선물	-263
▁찾아	-264
▁배	-265
▁힘든	-266
▁누	-267
▁화	-268
▁보고	-269
▁아무	-270
합니다	-271
▁느	-272
▁저도	-273
▁변	-274
볼까	-275
▁고백	-276
▁없어요	-277
▁술	-278
까지	-279
야기	-280
이죠	-281
▁짝녀	-282
거예요	-283
▁맛	-284
▁바랄	-285
니까요	-286
▁카	-287
▁그럴	-288
겠다	-289
▁후회	-290
▁꿈	-291
▁몰	-292
▁운	-293
을까	-294
▁먼저	-295
▁서로	-296
▁진짜	-297
▁바랄게요	-298
해서	-299
▁없는	-300
▁충	-301
▁돼요	-302
▁방법	-303
▁사귀	-304
▁제가	-305
봅니다	-306
▁이야기	-307
▁심	-308
▁적	-309
▁문	-310
해야	-311
▁헤어지	-312
▁직	-313
▁시작	-314
▁동	-315
▁헤어진지	-316
▁불	-317
▁들어	-318
▁귀	-319
▁돌	-320
▁해야	-321
▁있을까	-322
▁올	-323
에는	-324
▁그녀	-325
▁하나	-326
이야	-327
인가	-328
▁계속	-329
▁일이	-330
▁답	-331
▁나를	-332
▁받아	-333
▁아닌	-334
▁좋아요	-335
▁버	-336
▁줄	-337
▁공부	-338
해주세요	-339
▁1	-340
▁매	-341
▁감정	-342
▁사랑이	-343
▁마음을	-344
이트	-345
▁가능	-346
▁될까	-347
▁보세요	-348
▁왔	-349
▁기분	-350
▁여자친구가	-351
▁먹고	-352
려고	-353
▁힘드	-354
▁남자친구가	-355
▁돈	-356
기가	-357
면서	-358
보는	-359
▁만들	-360
랍니다	-361
▁여자친구	-362
▁현	-363
▁실	-364
▁회	-365
대로	-366
했어	-367
▁드세요	-368
▁않아요	-369
▁하세요	-370
▁떨	-371
▁신경	-372
▁이상	-373
다는	-374
▁좋죠	-375
▁하루	-376
▁곳	-377
▁세	-378
▁쓰	-379
리는	-380
지는	-381
▁간	-382
니까	-383
▁많은	-384
▁하지	-385
▁걱	-386
▁머	-387
자고	-388
하기	-389
▁걱정	-390
▁떠	-391
▁믿	-392
▁알아	-393
▁속	-394
▁취	-395
▁함	-396
▁싫어	-397
입니다	-398
▁바랍니다	-399
나요	-400
▁상대	-401
▁분	-402
▁원	-403
▁표	-404
하는게	-405
▁영	-406
▁그래	-407
▁사랑하는	-408
▁관심	-409
▁기억	-410
▁힘들어	-411
▁쉽	-412
▁해요	-413
▁데이트	-414
▁남자친구	-415
적인	-416
▁상처	-417
▁생각해요	-418
▁말해보세요	-419
▁맘	-420
▁장	-421
▁커	-422
이랑	-423
▁축	-424
로운	-425
스러	-426
▁언제	-427
▁뭘	-428
▁입	-429
▁맛있	-430
▁어떨	-431
▁여행	-432
▁충분	-433
▁좋겠어요	-434
다가	-435
하죠	-436
▁무슨	-437
▁어떤	-438
▁있었	-439
▁앞	-440
▁엄	-441
▁용	-442
▁학	-443
▁있으면	-444
▁친구가	-445
▁외	-446
▁최	-447
이었	-448
텐데	-449
▁그냥	-450
▁대화	-451
▁카톡	-452
▁할까	-453
▁함께	-454
▁2	-455
▁구	-456
인지	-457
▁않는	-458
▁사람은	-459
▁이렇게	-460
▁발	-461
부터	-462
▁나만	-463
▁물어	-464
▁안돼	-465
▁3	-466
▁놓	-467
▁슬	-468
▁싸	-469
▁요	-470
▁오래	-471
▁헤어졌	-472
▁약	-473
하네	-474
▁내일	-475
▁누구	-476
▁않을	-477
▁표현	-478
▁몰라요	-479
▁힘드네	-480
▁머리	-481
▁이해	-482
▁궁	-483
▁열	-484
▁점	-485
라도	-486
▁여친	-487
▁전화	-488
겠지만	-489
▁자신을	-490
▁과	-491
가는	-492
▁사랑은	-493
▁길	-494
리고	-495
▁결정	-496
▁궁금	-497
▁많아	-498
▁운동	-499
▁이유	-500
▁하면	-501
▁됐	-502
▁설	-503
▁사람을	-504
▁새로운	-505
▁듯	-506
▁별	-507
▁호	-508
기도	-509
트레	-510
▁선택	-511
▁아프	-512
▁어디	-513
▁한달	-514
▁어떨까요	-515
▁늦	-516
▁단	-517
▁즐	-518
▁처	-519
▁돌아	-520
▁부담	-521
▁썸남	-522
▁스트레	-523
▁있는데	-524
▁생각해보세요	-525
▁복	-526
했던	-527
▁안되	-528
▁주세요	-529
▁깨	-530
▁치	-531
어도	-532
▁미련	-533
▁생겼	-534
▁해도	-535
▁잡	-536
▁타는	-537
▁회사	-538
▁나한테	-539
▁죽	-540
▁노력	-541
▁말고	-542
▁유	-543
▁챙	-544
▁첫	-545
개월	-546
었어	-547
해주	-548
▁보내	-549
▁직접	-550
▁아니에요	-551
거나	-552
나봐	-553
▁가고	-554
▁다가	-555
▁따라	-556
▁만큼	-557
▁순	-558
▁질	-559
▁그만	-560
▁때문	-561
▁않아	-562
▁인연	-563
▁지나	-564
았는데	-565
▁생각나	-566
▁생각이	-567
▁연락이	-568
▁좋겠네요	-569
▁갈	-570
▁막	-571
▁번	-572
▁와	-573
▁휴	-574
처럼	-575
▁그러	-576
▁싶은	-577
▁어떡	-578
▁생각을	-579
▁벌	-580
움이	-581
이나	-582
▁만날	-583
▁않았	-584
▁이젠	-585
▁재미	-586
▁경	-587
▁멋	-588
▁항	-589
군요	-590
▁그게	-591
▁소개	-592
▁어려	-593
▁항상	-594
으세요	-595
▁같은데	-596
▁괜찮아	-597
▁신경쓰	-598
나봅니다	-599
▁스트레스	-600
▁갑	-601
가요	-602
해지	-603
▁남친	-604
▁쉽지	-605
▁인생	-606
▁잘못	-607
▁저는	-608
▁그렇게	-609
▁마음에	-610
▁이별을	-611
▁짝남이	-612
▁완	-613
▁문제	-614
▁아파	-615
▁조심	-616
적으로	-617
▁허	-618
기를	-619
보고	-620
▁같은	-621
▁노래	-622
▁처음	-623
했는데	-624
▁바라요	-625
▁좋겠다	-626
인가봐요	-627
▁모르겠어	-628
▁몸	-629
▁봐	-630
▁붙	-631
거라	-632
어나	-633
▁느낌	-634
▁상황	-635
▁어때	-636
하네요	-637
하는데	-638
▁난	-639
하다	-640
▁때가	-641
▁우리	-642
리세요	-643
려보세요	-644
▁볼	-645
는지	-646
졌어	-647
▁나이	-648
▁달라	-649
▁만났	-650
▁변화	-651
▁축하	-652
▁중요한	-653
▁찾아보세요	-654
▁개	-655
▁꼭	-656
▁넘	-657
▁덜	-658
▁목	-659
▁손	-660
▁웃	-661
▁천	-662
▁크	-663
스럽	-664
습관	-665
▁확실	-666
▁사랑을	-667
▁결국	-668
▁답답	-669
▁위로	-670
▁챙겨	-671
▁화장	-672
▁이별은	-673
▁가보세요	-674
▁빠	-675
▁큰	-676
▁가는	-677
▁기대	-678
▁나는	-679
▁다음	-680
▁말을	-681
▁추억	-682
▁현실	-683
▁생각해	-684
▁괜찮아요	-685
▁포	-686
▁말씀	-687
▁사이	-688
▁세상	-689
▁영화	-690
▁요즘	-691
▁잊어	-692
▁힘내	-693
▁좋겠어	-694
▁충분히	-695
▁절	-696
▁친	-697
▁그렇	-698
▁대화를	-699
▁도움이	-700
▁사랑한	-701
▁태	-702
▁환	-703
▁흘	-704
감이	-705
는거	-706
만에	-707
심히	-708
지막	-709
지요	-710
▁의미	-711
▁있죠	-712
▁여자애	-713
▁열심히	-714
▁물어보세요	-715
▁뭔	-716
▁풀	-717
걸까	-718
동안	-719
싶어	-720
았어	-721
이네	-722
▁가져	-723
▁가지	-724
▁않은	-725
▁언젠	-726
▁추천	-727
▁확인	-728
▁마음의	-729
▁마지막	-730
▁아직도	-731
▁연락을	-732
▁좋을까	-733
▁밥	-734
▁종	-735
▁청	-736
것도	-737
보면	-738
▁말해	-739
▁먹어	-740
▁아침	-741
▁얼른	-742
▁정신	-743
▁집에	-744
이라도	-745
▁말아요	-746
▁싶은데	-747
▁식	-748
▁짜	-749
▁가슴	-750
▁건강	-751
▁관계	-752
▁나쁜	-753
▁만남	-754
▁부모	-755
▁습관	-756
▁어제	-757
▁때문에	-758
▁사랑의	-759
▁상대방	-760
▁시간을	-761
▁오늘도	-762
▁연락해보세요	-763
▁뿐	-764
▁키	-765
▁평	-766
라면	-767
사람	-768
워요	-769
일까	-770
▁되었	-771
▁매일	-772
▁짝녀가	-773
▁헤어짐	-774
으니까요	-775
한가봐요	-776
▁금	-777
▁된	-778
▁몇	-779
▁솔	-780
▁울	-781
▁프	-782
▁핸	-783
▁가장	-784
▁귀찮	-785
▁그리	-786
▁다르	-787
▁살고	-788
▁어느	-789
▁완전	-790
▁재회	-791
▁남자애	-792
▁당신의	-793
▁부모님	-794
▁조금만	-795
했나봐요	-796
▁있나봐요	-797
▁긴	-798
▁빨	-799
▁온	-800
▁졸	-801
▁티	-802
자기	-803
▁나가	-804
▁떨어	-805
▁바람	-806
▁아닐	-807
▁제일	-808
▁커피	-809
▁핸드	-810
릴게요	-811
▁조금씩	-812
▁해볼까	-813
▁헤어지고	-814
▁딱	-815
▁잔	-816
▁착	-817
감을	-818
신이	-819
▁대한	-820
▁못하	-821
▁알려	-822
▁얼마	-823
▁이런	-824
▁진심	-825
하면서	-826
▁남자가	-827
▁사람들	-828
▁오세요	-829
▁좋아하	-830
▁로	-831
▁작	-832
▁존	-833
▁통	-834
더니	-835
리가	-836
한지	-837
▁같애	-838
▁거라	-839
▁많았	-840
▁모든	-841
▁성공	-842
▁순간	-843
▁자연	-844
▁잘할	-845
▁그래도	-846
▁핸드폰	-847
▁글	-848
▁꾸	-849
▁초	-850
▁파	-851
스로	-852
▁맞는	-853
▁살아	-854
▁엄마	-855
▁연습	-856
▁인정	-857
▁주말	-858
▁한번	-859
스러운	-860
▁기다리	-861
▁이별이	-862
▁자신의	-863
▁사람이랑	-864
▁중요해요	-865
▁조심하세요	-866
▁망	-867
폭풍	-868
▁되는	-869
▁사진	-870
▁엄청	-871
▁없을	-872
▁갑자기	-873
▁모르는	-874
▁합니다	-875
▁했는데	-876
▁사람들이	-877
▁알았는데	-878
▁강	-879
▁네	-880
수록	-881
적이	-882
지지	-883
▁가끔	-884
▁복잡	-885
▁얼굴	-886
▁없네	-887
▁예뻐	-888
▁예의	-889
▁왔어	-890
▁잊혀	-891
▁재밌	-892
▁스스로	-893
▁여자가	-894
▁좋아할	-895
▁필요한	-896
하겠어요	-897
▁갖	-898
▁욕	-899
▁음	-900
▁짧	-901
▁탈	-902
같은	-903
▁날씨	-904
▁남편	-905
▁모두	-906
▁상관	-907
▁쉬운	-908
▁자주	-909
▁지내	-910
달라고	-911
마세요	-912
▁만나고	-913
▁소개팅	-914
▁정리가	-915
▁짝남한테	-916
▁5	-917
▁극	-918
▁면	-919
▁야	-920
왔어	-921
▁떠나	-922
▁마시	-923
▁뭘까	-924
▁보는	-925
▁보이	-926
▁알바	-927
▁저랑	-928
었는데	-929
▁기분이	-930
▁당신이	-931
▁사람한테	-932
▁끊	-933
▁듣	-934
▁옷	-935
▁흐	-936
거리	-937
기로	-938
다니	-939
력이	-940
만큼	-941
없이	-942
▁눈물	-943
▁되나	-944
▁무서	-945
▁무시	-946
▁실수	-947
▁아픈	-948
▁짜증	-949
▁피곤	-950
▁싶어요	-951
▁어떡해	-952
▁연락해	-953
▁있다면	-954
▁잘하는	-955
▁후폭풍	-956
▁생각보다	-957
▁모르겠어요	-958
▁4	-959
▁견	-960
▁꽃	-961
▁둘	-962
▁똑	-963
▁월	-964
▁줘	-965
가고	-966
건가	-967
려요	-968
쁘게	-969
해질	-970
▁나와	-971
▁도와	-972
▁별로	-973
▁아픔	-974
▁정도	-975
▁기다려	-976
▁만들어	-977
▁오늘은	-978
▁지금도	-979
▁받아들이	-980
!!	-981
▁본	-982
▁봄	-983
▁코	-984
▁흔	-985
일째	-986
지가	-987
천히	-988
해줘	-989
▁가족	-990
▁걸까	-991
▁극복	-992
▁끝나	-993
▁모습	-994
▁뭐가	-995
▁붙잡	-996
▁빨리	-997
▁사는	-998
▁솔직	-999
▁지켜	-1000
▁차단	-1001
▁학교	-1002
▁괜찮은	-1003
▁사랑에	-1004
▁잘하고	-1005
▁천천히	-1006
▁친구랑	-1007
▁6	-1008
▁갔	-1009
▁뒤	-1010
▁밤	-1011
▁양	-1012
▁은	-1013
▁출	-1014
같아	-1015
마다	-1016
시간	-1017
▁감기	-1018
▁것이	-1019
▁그분	-1020
▁다녀	-1021
▁따뜻	-1022
▁마주	-1023
▁벌써	-1024
▁보여	-1025
▁자기	-1026
▁점점	-1027
▁환승	-1028
기까지	-1029
▁맛있게	-1030
▁인연이	-1031
▁확신이	-1032
▁빌	-1033
▁익	-1034
기는	-1035
이면	-1036
주는	-1037
▁끝났	-1038
▁내려	-1039
▁두려	-1040
▁만난	-1041
▁살펴	-1042
▁설레	-1043
▁아이	-1044
▁운명	-1045
▁직장	-1046
▁하죠	-1047
▁힘이	-1048
겠지요	-1049
▁다가가	-1050
▁당신을	-1051
▁사람도	-1052
▁사세요	-1053
▁자신이	-1054
▁하는데	-1055
드릴게요	-1056
▁담	-1057
▁병	-1058
▁책	-1059
거야	-1060
라는	-1061
이별	-1062
하나	-1063
▁날이	-1064
▁놓아	-1065
▁배우	-1066
▁봐요	-1067
▁잠시	-1068
▁주변	-1069
▁행동	-1070
▁이유가	-1071
▁첫사랑	-1072
▁하나씩	-1073
▁힘들었	-1074
하겠네요	-1075
▁연락하고	-1076
▁힘내세요	-1077
▁군	-1078
▁능	-1079
▁멀	-1080
▁베	-1081
▁응	-1082
▁찍	-1083
리지	-1084
어가	-1085
있는	-1086
▁게임	-1087
▁나서	-1088
▁눈을	-1089
▁되길	-1090
▁성격	-1091
▁익숙	-1092
▁일찍	-1093
스러워	-1094
▁믿어요	-1095
▁사귀고	-1096
▁아닌데	-1097
▁언젠간	-1098
▁친구들	-1099
▁많았어요	-1100
▁뿐이에요	-1101
▁서로에게	-1102
▁신경쓰지	-1103
▁괴	-1104
▁교	-1105
▁맨	-1106
▁메	-1107
▁얘	-1108
로워	-1109
▁나도	-1110
▁나을	-1111
▁놀러	-1112
▁도전	-1113
▁마련	-1114
▁무엇	-1115
▁받고	-1116
▁스타	-1117
▁슬픈	-1118
▁않죠	-1119
▁있나	-1120
▁즐거	-1121
▁지났	-1122
▁집착	-1123
다보면	-1124
▁힘들다	-1125
▁해주세요	-1126
▁깊	-1127
▁명	-1128
남친	-1129
래도	-1130
에도	-1131
여친	-1132
▁가서	-1133
▁거죠	-1134
▁관리	-1135
▁나아	-1136
▁나오	-1137
▁느껴	-1138
▁아는	-1139
▁안녕	-1140
▁오랜	-1141
▁이겨	-1142
▁자존	-1143
▁주무	-1144
▁후련	-1145
▁만나는	-1146
▁행복해	-1147
▁힘들게	-1148
▁있었나봐요	-1149
..	-1150
▁곧	-1151
▁법	-1152
▁삶	-1153
▁척	-1154
▁헷	-1155
생활	-1156
어야	-1157
이는	-1158
하길	-1159
▁거짓	-1160
▁끝이	-1161
▁다행	-1162
▁말이	-1163
▁뭐야	-1164
▁알게	-1165
▁여유	-1166
▁연인	-1167
▁용기	-1168
▁우울	-1169
▁위해	-1170
▁잊지	-1171
▁자체	-1172
▁최고	-1173
▁카페	-1174
▁포기	-1175
▁헷갈	-1176
이었을	-1177
▁생각할	-1178
▁원하는	-1179
▁이상형	-1180
▁일어나	-1181
▁좋아해	-1182
▁못하겠어	-1183
▁아무것도	-1184
▁아무래도	-1185
▁이별한지	-1186
▁낫	-1187
▁봤	-1188
▁접	-1189
▁향	-1190
르고	-1191
사를	-1192
여행	-1193
정이	-1194
중에	-1195
지고	-1196
▁꿈에	-1197
▁눈이	-1198
▁되지	-1199
▁부족	-1200
▁비싸	-1201
▁소중	-1202
▁썸타	-1203
▁없이	-1204
▁응원	-1205
▁전에	-1206
▁했어	-1207
했어요	-1208
▁거짓말	-1209
▁곳으로	-1210
▁귀찮아	-1211
▁먹으면	-1212
▁보고싶	-1213
▁여친이	-1214
▁이별후	-1215
▁지금은	-1216
여보세요	-1217
▁먹어야지	-1218
▁사랑했던	-1219
▁주무세요	-1220
▁까	-1221
▁빼	-1222
▁읽	-1223
▁증	-1224
버렸	-1225
져요	-1226
한데	-1227
▁금방	-1228
▁늦지	-1229
▁다를	-1230
▁데려	-1231
▁미안	-1232
▁보면	-1233
▁보통	-1234
▁부러	-1235
▁생일	-1236
▁싸우	-1237
▁없죠	-1238
▁죽을	-1239
▁그녀를	-1240
▁나중에	-1241
▁많아요	-1242
▁사귀는	-1243
▁싶네요	-1244
▁아니라	-1245
▁않아도	-1246
▁예의가	-1247
▁전남친	-1248
▁친구를	-1249
▁필요해	-1250
었나봐요	-1251
▁괜찮을까	-1252
▁좋아하게	-1253
▁좋아하면	-1254
▁필요해요	-1255
▁가져보세요	-1256
▁냉	-1257
▁벗	-1258
▁숨	-1259
▁써	-1260
▁쓸	-1261
▁에	-1262
더라	-1263
리를	-1264
사친	-1265
야죠	-1266
움을	-1267
▁건지	-1268
▁고생	-1269
▁대로	-1270
▁맨날	-1271
▁미리	-1272
▁받는	-1273
▁부분	-1274
▁소식	-1275
▁애가	-1276
▁어렵	-1277
▁우산	-1278
▁월급	-1279
▁일을	-1280
▁잊는	-1281
▁작은	-1282
▁잠이	-1283
▁주는	-1284
▁중에	-1285
▁진정	-1286
▁충전	-1287
스럽게	-1288
이라면	-1289
해주는	-1290
했으면	-1291
▁감정을	-1292
▁남편이	-1293
▁당신은	-1294
▁때까지	-1295
▁만나지	-1296
▁만났어	-1297
▁없네요	-1298
▁이별의	-1299
▁전여친	-1300
겠습니다	-1301
▁중요하지	-1302
▁짝녀한테	-1303
▁친구한테	-1304
▁살펴보세요	-1305
▁확인해보세요	-1306
??	-1307
ᅲᅲ	-1308
▁근	-1309
▁높	-1310
▁산	-1311
▁폰	-1312
건지	-1313
대요	-1314
밖에	-1315
쇼핑	-1316
아서	-1317
으니	-1318
이가	-1319
장이	-1320
하려	-1321
하시	-1322
▁기회	-1323
▁되어	-1324
▁드는	-1325
▁로맨	-1326
▁바쁜	-1327
▁받을	-1328
▁방학	-1329
▁비밀	-1330
▁생길	-1331
▁쉬고	-1332
▁시험	-1333
▁아름	-1334
▁안나	-1335
▁안해	-1336
▁알고	-1337
▁앞에	-1338
▁약속	-1339
▁자책	-1340
▁잠깐	-1341
▁종교	-1342
▁편이	-1343
▁하늘	-1344
▁흘렀	-1345
야겠다	-1346
하겠죠	-1347
해야지	-1348
▁가세요	-1349
▁관심이	-1350
▁누구나	-1351
▁변화가	-1352
▁언제나	-1353
▁예쁘게	-1354
▁해봐요	-1355
▁확실한	-1356
▁힘들죠	-1357
▁고민이야	-1358
▁남자애가	-1359
▁연락해도	-1360
▁좋아하는데	-1361
▁사랑해주세요	-1362
▁헤어졌습니다	-1363
▁.	-1364
겠네	-1365
기만	-1366
당히	-1367
들어	-1368
들은	-1369
리게	-1370
하니	-1371
▁가기	-1372
▁꾸준	-1373
▁끝내	-1374
▁돈이	-1375
▁마셔	-1376
▁맞춰	-1377
▁멋진	-1378
▁미치	-1379
▁바로	-1380
▁바쁘	-1381
▁분위	-1382
▁시원	-1383
▁않고	-1384
▁이번	-1385
▁이어	-1386
▁장난	-1387
▁즐기	-1388
▁타고	-1389
▁허전	-1390
이라는	-1391
▁고민이	-1392
▁궁금해	-1393
▁그래요	-1394
▁맛있는	-1395
▁사랑할	-1396
▁생각만	-1397
▁아닌지	-1398
▁알려줘	-1399
▁없다면	-1400
▁재미있	-1401
▁즐거운	-1402
▁같습니다	-1403
▁사랑하고	-1404
▁짝남이랑	-1405
▁힘들어요	-1406
▁골	-1407
▁옆	-1408
▁채	-1409
▁칭	-1410
들을	-1411
디어	-1412
일이	-1413
퇴근	-1414
▁당연	-1415
▁됐어	-1416
▁되네	-1417
▁드라	-1418
▁먹을	-1419
▁바라	-1420
▁바보	-1421
▁보지	-1422
▁쇼핑	-1423
▁스킨	-1424
▁시켜	-1425
▁어울	-1426
▁어쩌	-1427
▁여러	-1428
▁이러	-1429
▁절대	-1430
▁존중	-1431
▁취미	-1432
▁칭찬	-1433
▁해결	-1434
더라고	-1435
잖아요	-1436
줬으면	-1437
▁드디어	-1438
▁못하는	-1439
▁받아들	-1440
▁봅니다	-1441
▁상처받	-1442
▁이제는	-1443
▁있는지	-1444
▁좋겠죠	-1445
▁좋은데	-1446
▁중인데	-1447
▁여자애가	-1448
▁친구들이	-1449
▁힘들겠지만	-1450
▁등	-1451
가를	-1452
줄까	-1453
해져	-1454
▁가면	-1455
▁가야	-1456
▁간다	-1457
▁경우	-1458
▁곳이	-1459
▁동거	-1460
▁때도	-1461
▁마요	-1462
▁문자	-1463
▁뭔가	-1464
▁뭔지	-1465
▁미워	-1466
▁싫다	-1467
▁안경	-1468
▁않길	-1469
▁예민	-1470
▁예쁜	-1471
▁이성	-1472
▁일은	-1473
▁잊고	-1474
▁자격	-1475
▁지쳤	-1476
▁차분	-1477
▁하셨	-1478
▁해서	-1479
▁헤아	-1480
보는게	-1481
해지는	-1482
▁가슴이	-1483
▁괜찮을	-1484
▁두려워	-1485
▁로맨틱	-1486
▁뭐라고	-1487
▁미련이	-1488
▁사람에	-1489
▁사랑해	-1490
▁시간은	-1491
▁어느덧	-1492
▁어려워	-1493
▁짜증나	-1494
더라고요	-1495
신가봐요	-1496
▁거기까지	-1497
▁아닐까요	-1498
▁않는다면	-1499
▁있습니다	-1500
▁자책하지	-1501
▁독	-1502
▁밀	-1503
▁삼	-1504
▁역	-1505
▁택	-1506
▁터	-1507
년이	-1508
받고	-1509
음이	-1510
이밍	-1511
이지	-1512
자리	-1513
전히	-1514
한게	-1515
해졌	-1516
▁10	-1517
▁것을	-1518
▁기본	-1519
▁까먹	-1520
▁나랑	-1521
▁되고	-1522
▁두달	-1523
▁못해	-1524
▁번호	-1525
▁보러	-1526
▁볼까	-1527
▁서운	-1528
▁슬프	-1529
▁썸녀	-1530
▁어쩔	-1531
▁오는	-1532
▁조언	-1533
▁취직	-1534
▁커플	-1535
▁태어	-1536
▁해주	-1537
답니다	-1538
드려요	-1539
▁그대로	-1540
▁그러면	-1541
▁그리고	-1542
▁마음도	-1543
▁마음은	-1544
▁문제가	-1545
▁방법이	-1546
▁안되는	-1547
▁타이밍	-1548
▁헤어져	-1549
가봅니다	-1550
아보세요	-1551
▁물어보는	-1552
▁사랑하면	-1553
▁생각하고	-1554
▁축하해요	-1555
▁다행이에요	-1556
▁받아들이는	-1557
▁부담스러워	-1558
▁자연스러운	-1559
▁좋아하는게	-1560
▁꿨	-1561
▁뜻	-1562
▁멈	-1563
▁멍	-1564
▁쌓	-1565
▁클	-1566
▁특	-1567
▁희	-1568
니가	-1569
덤덤	-1570
때는	-1571
리스	-1572
마스	-1573
보여	-1574
생님	-1575
스크	-1576
식을	-1577
심해	-1578
야할	-1579
연애	-1580
자는	-1581
했다	-1582
▁갖고	-1583
▁군대	-1584
▁귀여	-1585
▁떨려	-1586
▁뭐든	-1587
▁배워	-1588
▁불편	-1589
▁사과	-1590
▁상담	-1591
▁소리	-1592
▁일주	-1593
▁잊을	-1594
▁자유	-1595
▁저를	-1596
▁적응	-1597
▁졸업	-1598
▁집중	-1599
▁최선	-1600
▁흔들	-1601
가세요	-1602
오세요	-1603
▁가지고	-1604
▁같네요	-1605
▁것보다	-1606
▁관심을	-1607
▁꾸준히	-1608
▁능력이	-1609
▁무서워	-1610
▁선생님	-1611
▁썸남이	-1612
▁어려운	-1613
▁용기를	-1614
▁위로해	-1615
▁이상한	-1616
▁잊어버	-1617
▁적당히	-1618
▁준비가	-1619
▁충분한	-1620
▁화장실	-1621
상이에요	-1622
▁기다리고	-1623
▁다음에는	-1624
▁말하세요	-1625
▁사람마다	-1626
▁않았으면	-1627
▁진심으로	-1628
▁헤어졌어	-1629
▁후회하지	-1630
▁사람이네요	-1631
▁힘들겠어요	-1632
▁삭	-1633
▁샀	-1634
냄새	-1635
만의	-1636
시켜	-1637
오네	-1638
치가	-1639
한거	-1640
한다	-1641
함이	-1642
▁고마	-1643
▁그건	-1644
▁끝을	-1645
▁나온	-1646
▁누가	-1647
▁당당	-1648
▁대학	-1649
▁두근	-1650
▁몰랐	-1651
▁몸이	-1652
▁배려	-1653
▁병원	-1654
▁삭제	-1655
▁생기	-1656
▁어색	-1657
▁연예	-1658
▁오빠	-1659
▁원래	-1660
▁위험	-1661
▁이기	-1662
▁일어	-1663
▁잠수	-1664
▁잠을	-1665
▁적극	-1666
▁좋았	-1667
▁질투	-1668
▁집안	-1669
▁청소	-1670
▁출근	-1671
▁키우	-1672
하려고	-1673
▁가야지	-1674
▁감정이	-1675
▁그녀가	-1676
▁그사람	-1677
▁남친이	-1678
▁받았어	-1679
▁사람과	-1680
▁스킨십	-1681
▁스타일	-1682
▁있나요	-1683
▁있네요	-1684
▁저에게	-1685
▁제대로	-1686
▁하는게	-1687
았나봐요	-1688
▁사람에게	-1689
▁않을까요	-1690
▁있겠어요	-1691
▁있잖아요	-1692
▁자신에게	-1693
▁후폭풍이	-1694
▁만나보세요	-1695
▁좋아하는지	-1696
▁S	-1697
▁각	-1698
▁걷	-1699
▁권	-1700
▁꼬	-1701
▁셀	-1702
▁철	-1703
▁체	-1704
▁톡	-1705
▁투	-1706
▁팔	-1707
가지	-1708
내고	-1709
내서	-1710
년째	-1711
놓고	-1712
려면	-1713
르는	-1714
사가	-1715
시길	-1716
시는	-1717
었다	-1718
이요	-1719
인거	-1720
▁감사	-1721
▁경험	-1722
▁꿈을	-1723
▁나눠	-1724
▁놀이	-1725
▁다이	-1726
▁담배	-1727
▁당황	-1728
▁무너	-1729
▁무뎌	-1730
▁발표	-1731
▁버려	-1732
▁버텨	-1733
▁보냈	-1734
▁본인	-1735
▁쉽게	-1736
▁싫은	-1737
▁안타	-1738
▁애랑	-1739
▁얘기	-1740
▁어플	-1741
▁올려	-1742
▁좋다	-1743
▁좋지	-1744
▁착각	-1745
▁편지	-1746
▁프로	-1747
▁하기	-1748
됩니다	-1749
인가봐	-1750
하다고	-1751
▁데려다	-1752
▁말하는	-1753
▁머리가	-1754
▁사람의	-1755
▁상황을	-1756
▁서로를	-1757
▁성격이	-1758
▁아름다	-1759
▁안하고	-1760
▁연예인	-1761
▁완전히	-1762
▁있어도	-1763
▁좋아한	-1764
▁하나도	-1765
▁해보는	-1766
▁행복한	-1767
▁후회할	-1768
▁되겠네요	-1769
▁만나자고	-1770
▁보고싶어	-1771
▁일이에요	-1772
▁자신감을	-1773
▁그런가봐요	-1774
▁겨	-1775
▁났	-1776
▁늘	-1777
▁판	-1778
고생	-1779
구나	-1780
리면	-1781
만이	-1782
상을	-1783
성이	-1784
시다	-1785
어머	-1786
없는	-1787
었네	-1788
워질	-1789
이길	-1790
장을	-1791
지네	-1792
질까	-1793
▁같네	-1794
▁과정	-1795
▁귀엽	-1796
▁기운	-1797
▁끝은	-1798
▁나타	-1799
▁동생	-1800
▁드시	-1801
▁말도	-1802
▁먹는	-1803
▁바꿔	-1804
▁바빠	-1805
▁발전	-1806
▁부탁	-1807
▁사실	-1808
▁살짝	-1809
▁새벽	-1810
▁생긴	-1811
▁속이	-1812
▁싶지	-1813
▁안됐	-1814
▁우선	-1815
▁위한	-1816
▁인사	-1817
▁일도	-1818
▁있고	-1819
▁점심	-1820
▁존재	-1821
▁주고	-1822
▁차이	-1823
▁피부	-1824
▁해줘	-1825
으면서	-1826
인가요	-1827
▁그리워	-1828
▁기다릴	-1829
▁놀아요	-1830
▁눈물이	-1831
▁돌아오	-1832
▁맘고생	-1833
▁못하고	-1834
▁무엇이	-1835
▁아무리	-1836
▁안들어	-1837
▁연습을	-1838
▁한동안	-1839
▁호감이	-1840
▁혼자가	-1841
▁힘들지	-1842
리스마스	-1843
했습니다	-1844
▁만나세요	-1845
▁놓아주세요	-1846
▁생각하세요	-1847
▁축하드려요	-1848
▁말씀해주세요	-1849
▁시작해보세요	-1850
NS	-1851
▁7	-1852
▁깔	-1853
▁꺼	-1854
▁뜨	-1855
▁리	-1856
▁침	-1857
나는	-1858
냐고	-1859
력을	-1860
말고	-1861
봐도	-1862
상이	-1863
어트	-1864
었을	-1865
웨딩	-1866
음을	-1867
이다	-1868
줬어	-1869
▁가치	-1870
▁갈까	-1871
▁걸로	-1872
▁계획	-1873
▁고쳐	-1874
▁괜히	-1875
▁괴롭	-1876
▁그랬	-1877
▁그럼	-1878
▁다니	-1879
▁듣고	-1880
▁따로	-1881
▁떠난	-1882
▁면접	-1883
▁목소	-1884
▁못한	-1885
▁무섭	-1886
▁바뀌	-1887
▁받지	-1888
▁배고	-1889
▁버스	-1890
▁비가	-1891
▁살까	-1892
▁속상	-1893
▁쉬는	-1894
▁쓰레	-1895
▁애매	-1896
▁없나	-1897
▁없다	-1898
▁없애	-1899
▁우연	-1900
▁의지	-1901
▁이름	-1902
▁이용	-1903
▁자고	-1904
▁저녁	-1905
▁주면	-1906
▁지우	-1907
▁지쳐	-1908
▁퇴근	-1909
▁프사	-1910
▁피해	-1911
▁학원	-1912
▁한잔	-1913
▁했던	-1914
다가도	-1915
두세요	-1916
드세요	-1917
하다면	-1918
▁SNS	-1919
▁가자고	-1920
▁남자를	-1921
▁되는데	-1922
▁만나서	-1923
▁아는데	-1924
▁외로워	-1925
▁이상해	-1926
▁지나갈	-1927
▁추억이	-1928
▁친구로	-1929
▁괜찮아졌	-1930
▁괜찮아질	-1931
▁다이어트	-1932
▁생각하는	-1933
▁연락하면	-1934
▁오랜만에	-1935
▁좋을텐데	-1936
하지마세요	-1937
▁모르겠네요	-1938
▁사랑하는데	-1939
▁사랑한다고	-1940
▁여자친구와	-1941
▁자연스럽게	-1942
▁크리스마스	-1943
▁현상이에요	-1944
▁말씀해보세요	-1945
▁이야기해보세요	-1946
▁낭	-1947
▁뒷	-1948
▁뿌	-1949
▁억	-1950
▁업	-1951
▁트	-1952
▁페	-1953
느라	-1954
됐어	-1955
리기	-1956
서관	-1957
소한	-1958
어서	-1959
였어	-1960
주가	-1961
지면	-1962
치고	-1963
치는	-1964
했을	-1965
▁가벼	-1966
▁간절	-1967
▁거야	-1968
▁거절	-1969
▁건가	-1970
▁견디	-1971
▁꿈이	-1972
▁냄새	-1973
▁누군	-1974
▁눈에	-1975
▁느끼	-1976
▁대해	-1977
▁돈을	-1978
▁되면	-1979
▁많죠	-1980
▁미래	-1981
▁바뀔	-1982
▁불안	-1983
▁비교	-1984
▁사라	-1985
▁소화	-1986
▁신혼	-1987
▁심해	-1988
▁안와	-1989
▁안좋	-1990
▁영원	-1991
▁오해	-1992
▁이거	-1993
▁이사	-1994
▁이혼	-1995
▁인형	-1996
▁일상	-1997
▁있지	-1998
▁주지	-1999
▁취업	-2000
일지도	-2001
하니까	-2002
해봐요	-2003
해지면	-2004
▁결혼식	-2005
▁나이가	-2006
▁날씨가	-2007
▁내일은	-2008
▁도서관	-2009
▁될까요	-2010
▁만나면	-2011
▁뭐하지	-2012
▁분위기	-2013
▁붙잡고	-2014
▁상처를	-2015
▁선택일	-2016
▁소중한	-2017
▁쉬세요	-2018
▁안해도	-2019
▁앞에서	-2020
▁앞으로	-2021
▁어쩌지	-2022
▁없는데	-2023
▁여유를	-2024
▁연락처	-2025
▁일주일	-2026
▁장거리	-2027
▁필요할	-2028
▁했으면	-2029
▁호감을	-2030
▁확실히	-2031
을거예요	-2032
▁기다리는	-2033
▁만났는데	-2034
▁부담스럽	-2035
▁생각나는	-2036
▁않았어요	-2037
▁연락하지	-2038
▁좋아할까	-2039
▁궁금하네요	-2040
▁사람이에요	-2041
▁지켜보세요	-2042
▁짝사랑하는	-2043
▁들어드릴게요	-2044
▁8	-2045
▁끄	-2046
▁됨	-2047
▁든	-2048
▁딸	-2049
▁뻔	-2050
▁썼	-2051
▁쐬	-2052
▁염	-2053
▁잤	-2054
▁짐	-2055
▁찌	-2056
▁틀	-2057
▁헛	-2058
간이	-2059
거려	-2060
러가	-2061
세먼	-2062
심이	-2063
었던	-2064
여자	-2065
요일	-2066
으시	-2067
인듯	-2068
주지	-2069
하셨	-2070
할지	-2071
▁가까	-2072
▁갑작	-2073
▁개인	-2074
▁거울	-2075
▁결과	-2076
▁기념	-2077
▁깔끔	-2078
▁나의	-2079
▁내는	-2080
▁느려	-2081
▁대단	-2082
▁되죠	-2083
▁때는	-2084
▁멋있	-2085
▁못할	-2086
▁미친	-2087
▁반복	-2088
▁불러	-2089
▁비슷	-2090
▁사귈	-2091
▁슬퍼	-2092
▁썸이	-2093
▁않네	-2094
▁야근	-2095
▁역시	-2096
▁옆에	-2097
▁완벽	-2098
▁왔다	-2099
▁잡고	-2100
▁조급	-2101
▁졸려	-2102
▁차별	-2103
▁치과	-2104
▁크게	-2105
▁호감	-2106
듭니다	-2107
면서도	-2108
으려고	-2109
적이든	-2110
▁가능할	-2111
▁걱정돼	-2112
▁걱정되	-2113
▁그녀의	-2114
▁꿈에서	-2115
▁달라고	-2116
▁때네요	-2117
▁마스크	-2118
▁무서운	-2119
▁벗어나	-2120
▁상황이	-2121
▁시작이	-2122
▁쓰레기	-2123
▁아무도	-2124
▁않으면	-2125
▁어디서	-2126
▁어때요	-2127
▁얼마나	-2128
▁엄마가	-2129
▁연애는	-2130
▁예뻐요	-2131
▁왔는데	-2132
▁저도요	-2133
▁집안일	-2134
▁집에서	-2135
▁타는데	-2136
▁편하게	-2137
▁고민하고	-2138
▁사랑해서	-2139
▁썸남한테	-2140
▁어떡하지	-2141
▁연락하는	-2142
▁좋아하고	-2143
▁친구들과	-2144
▁필요하죠	-2145
▁하다보면	-2146
▁했습니다	-2147
▁헤어져야	-2148
▁헷갈리게	-2149
▁흘렀네요	-2150
▁남자친구의	-2151
▁알아보세요	-2152
▁여자친구의	-2153
▁이야기네요	-2154
▁있으니까요	-2155
▁전해보세요	-2156
▁지쳤나봐요	-2157
▁노력해보세요	-2158
▁이해해주세요	-2159
▁잊어버리세요	-2160
~~	-2161
▁갚	-2162
▁긍	-2163
▁농	-2164
▁움	-2165
▁죄	-2166
▁창	-2167
▁춥	-2168
▁패	-2169
▁푹	-2170
▁혹	-2171
같이	-2172
남자	-2173
될까	-2174
러워	-2175
려도	-2176
머리	-2177
먹고	-2178
방법	-2179
싶다	-2180
어진	-2181
오는	-2182
이고	-2183
주고	-2184
준비	-2185
할때	-2186
호흡	-2187
▁거지	-2188
▁견뎌	-2189
▁고통	-2190
▁공허	-2191
▁권태	-2192
▁긍정	-2193
▁기울	-2194
▁깨달	-2195
▁꿨어	-2196
▁나올	-2197
▁남았	-2198
▁남을	-2199
▁남의	-2200
▁놀고	-2201
▁놀아	-2202
▁동물	-2203
▁라면	-2204
▁마무	-2205
▁만드	-2206
▁말할	-2207
▁몰라	-2208
▁문득	-2209
▁보일	-2210
▁부럽	-2211
▁분명	-2212
▁사고	-2213
▁사귄	-2214
▁사야	-2215
▁사회	-2216
▁샀어	-2217
▁상태	-2218
▁생활	-2219
▁선톡	-2220
▁시계	-2221
▁실망	-2222
▁쓰는	-2223
▁아까	-2224
▁않게	-2225
▁알았	-2226
▁야경	-2227
▁어서	-2228
▁어장	-2229
▁외로	-2230
▁유지	-2231
▁은근	-2232
▁이건	-2233
▁이럴	-2234
▁이루	-2235
▁인간	-2236
▁전부	-2237
▁정확	-2238
▁줘도	-2239
▁지워	-2240
▁차가	-2241
▁추워	-2242
▁친한	-2243
▁택시	-2244
▁텐데	-2245
▁판단	-2246
▁평소	-2247
▁혹시	-2248
▁화가	-2249
▁희망	-2250
립니다	-2251
었어요	-2252
으니까	-2253
한다면	-2254
해볼까	-2255
▁결정을	-2256
▁그동안	-2257
▁그래서	-2258
▁기념일	-2259
▁남사친	-2260
▁당신도	-2261
▁먹을까	-2262
▁무덤덤	-2263
▁미세먼	-2264
▁변화를	-2265
▁상처가	-2266
▁생겼어	-2267
▁서로의	-2268
▁실감이	-2269
▁심호흡	-2270
▁썸인지	-2271
▁썸타는	-2272
▁아침에	-2273
▁안타깝	-2274
▁언제쯤	-2275
▁없다고	-2276
▁여사친	-2277
▁여행을	-2278
▁연애를	-2279
▁용기가	-2280
▁이유를	-2281
▁인생은	-2282
▁있는게	-2283
▁있지만	-2284
▁잊어야	-2285
▁잘해줘	-2286
▁저한테	-2287
▁지나갔	-2288
▁지내고	-2289
▁짝녀랑	-2290
▁찾아올	-2291
▁필요는	-2292
▁할텐데	-2293
▁해야지	-2294
▁후회가	-2295
였나봐요	-2296
▁가지세요	-2297
▁남자들은	-2298
▁당당하게	-2299
▁만나는게	-2300
▁받아들여	-2301
▁버리세요	-2302
▁사람으로	-2303
▁사랑하지	-2304
▁상대방을	-2305
▁생각나네	-2306
▁생각하지	-2307
▁아니라고	-2308
▁여기까지	-2309
▁이야기를	-2310
▁좋아해도	-2311
▁즐기세요	-2312
▁행복하게	-2313
▁회사에서	-2314
▁결정이었을	-2315
▁무시하세요	-2316
▁않으니까요	-2317
▁여자친구랑	-2318
▁헤어졌는데	-2319
▁기다려보세요	-2320
▁만들어보세요	-2321
ᄒᄒ	-2322
▁걔	-2323
▁낮	-2324
▁넣	-2325
▁놔	-2326
▁딴	-2327
▁센	-2328
▁쓴	-2329
▁씻	-2330
▁컨	-2331
▁컴	-2332
거를	-2333
나게	-2334
냐에	-2335
되는	-2336
두고	-2337
디션	-2338
렸어	-2339
리네	-2340
릴까	-2341
스타	-2342
점을	-2343
지로	-2344
치지	-2345
해줄	-2346
했네	-2347
▁가요	-2348
▁거니	-2349
▁계절	-2350
▁공통	-2351
▁그것	-2352
▁길이	-2353
▁깊은	-2354
▁끝난	-2355
▁나왔	-2356
▁나은	-2357
▁놓고	-2358
▁다들	-2359
▁다양	-2360
▁더워	-2361
▁동안	-2362
▁두고	-2363
▁때론	-2364
▁때를	-2365
▁마다	-2366
▁막말	-2367
▁만든	-2368
▁말투	-2369
▁먹었	-2370
▁멈추	-2371
▁반대	-2372
▁봐도	-2373
▁소문	-2374
▁소원	-2375
▁수가	-2376
▁수록	-2377
▁스키	-2378
▁신고	-2379
▁쐬고	-2380
▁아예	-2381
▁안전	-2382
▁울적	-2383
▁원망	-2384
▁음악	-2385
▁이게	-2386
▁있길	-2387
▁자세	-2388
▁조절	-2389
▁중국	-2390
▁지난	-2391
▁진급	-2392
▁짧은	-2393
▁채워	-2394
▁축구	-2395
▁취향	-2396
▁클럽	-2397
▁통보	-2398
▁편한	-2399
▁편할	-2400
▁평생	-2401
▁피할	-2402
▁하게	-2403
▁현금	-2404
▁현재	-2405
버렸어	-2406
일까요	-2407
해주고	-2408
▁가치관	-2409
▁감정에	-2410
▁거겠죠	-2411
▁그녀는	-2412
▁나왔어	-2413
▁됐으면	-2414
▁되기도	-2415
▁됩니다	-2416
▁드라마	-2417
▁똑같은	-2418
▁만난지	-2419
▁많은데	-2420
▁모르고	-2421
▁미안해	-2422
▁방학이	-2423
▁부러워	-2424
▁상대를	-2425
▁생각하	-2426
▁선물이	-2427
▁선택을	-2428
▁시어머	-2429
▁아니면	-2430
▁아프네	-2431
▁안돼요	-2432
▁안하는	-2433
▁애한테	-2434
▁언젠가	-2435
▁없어서	-2436
▁없으면	-2437
▁연락은	-2438
▁운동을	-2439
▁위로가	-2440
▁이겨낼	-2441
▁있겠죠	-2442
▁있겠지	-2443
▁잊혀지	-2444
▁자신에	-2445
▁좋지만	-2446
▁진정한	-2447
▁최고죠	-2448
▁하면서	-2449
▁한달이	-2450
▁행복할	-2451
▁가능성이	-2452
▁달라지는	-2453
▁떨어졌어	-2454
▁말이에요	-2455
▁부러워요	-2456
▁상대방이	-2457
▁생겼는데	-2458
▁아니라면	-2459
▁안됐는데	-2460
▁알면서도	-2461
▁용기내서	-2462
▁이성으로	-2463
▁자존감이	-2464
▁좋아하던	-2465
▁지금처럼	-2466
▁짝사랑이	-2467
▁충분해요	-2468
▁한동안은	-2469
▁힘들어서	-2470
▁힘들었을	-2471
▁방법이에요	-2472
▁부담스럽지	-2473
▁사람들에게	-2474
▁사랑한다면	-2475
▁여자애한테	-2476
▁응원합니다	-2477
▁있을거예요	-2478
▁적극적으로	-2479
▁정리하는게	-2480
▁헤어지자고	-2481
▁준비해보세요	-2482
ns	-2483
▁ᅲ	-2484
▁곁	-2485
▁깎	-2486
▁넌	-2487
▁뛰	-2488
▁맥	-2489
▁밝	-2490
▁악	-2491
▁으	-2492
▁잃	-2493
▁짓	-2494
▁째	-2495
▁찬	-2496
▁케	-2497
▁합	-2498
▁헬	-2499
가네	-2500
가면	-2501
가봐	-2502
간의	-2503
겼어	-2504
데요	-2505
배가	-2506
부를	-2507
수도	-2508
시면	-2509
식이	-2510
아야	-2511
아지	-2512
없어	-2513
울까	-2514
웠어	-2515
이팅	-2516
장고	-2517
전에	-2518
전환	-2519
지를	-2520
통보	-2521
하러	-2522
하루	-2523
sns	-2524
▁각자	-2525
▁갔다	-2526
▁거의	-2527
▁걸릴	-2528
▁것은	-2529
▁결심	-2530
▁골라	-2531
▁곳에	-2532
▁과일	-2533
▁교회	-2534
▁근처	-2535
▁글을	-2536
▁긴장	-2537
▁나면	-2538
▁나쁘	-2539
▁남겨	-2540
▁늦게	-2541
▁단단	-2542
▁달달	-2543
▁당장	-2544
▁두번	-2545
▁둘이	-2546
▁드네	-2547
▁만족	-2548
▁말까	-2549
▁말은	-2550
▁맥주	-2551
▁무리	-2552
▁바꾸	-2553
▁바꿀	-2554
▁밖에	-2555
▁변덕	-2556
▁분이	-2557
▁불행	-2558
▁사용	-2559
▁산책	-2560
▁상사	-2561
▁새로	-2562
▁설렘	-2563
▁셀프	-2564
▁시기	-2565
▁신청	-2566
▁싶네	-2567
▁쓰고	-2568
▁쓸데	-2569
▁아빠	-2570
▁알면	-2571
▁어린	-2572
▁여기	-2573
▁예쁘	-2574
▁오면	-2575
▁올라	-2576
▁왜이	-2577
▁외국	-2578
▁움직	-2579
▁있네	-2580
▁자리	-2581
▁잘생	-2582
▁잘해	-2583
▁전공	-2584
▁전환	-2585
▁제발	-2586
▁중간	-2587
▁진실	-2588
▁집이	-2589
▁초대	-2590
▁최악	-2591
▁태도	-2592
▁페북	-2593
▁하네	-2594
▁화를	-2595
▁휴가	-2596
더라도	-2597
만으로	-2598
싶은데	-2599
어가네	-2600
을지도	-2601
줄게요	-2602
하거나	-2603
하지만	-2604
▁곳에서	-2605
▁공부는	-2606
▁관계를	-2607
▁그렇지	-2608
▁기회가	-2609
▁끝까지	-2610
▁나이는	-2611
▁남자는	-2612
▁내세요	-2613
▁냉장고	-2614
▁느낌이	-2615
▁따뜻한	-2616
▁떨어져	-2617
▁마무리	-2618
▁모습이	-2619
▁물어보	-2620
▁물어봐	-2621
▁뭐하고	-2622
▁믿음이	-2623
▁부족한	-2624
▁사소한	-2625
▁사이가	-2626
▁상관없	-2627
▁생각에	-2628
▁생각은	-2629
▁생각한	-2630
▁선물을	-2631
▁시원한	-2632
▁썸인데	-2633
▁아니야	-2634
▁여자를	-2635
▁온전히	-2636
▁인기가	-2637
▁있다고	-2638
▁정리할	-2639
▁제자리	-2640
▁좋겠지	-2641
▁지났네	-2642
▁진심을	-2643
▁집들이	-2644
▁차분히	-2645
▁최선의	-2646
▁파이팅	-2647
▁표현해	-2648
셨나봐요	-2649
이었으면	-2650
▁고백해도	-2651
▁그렇지만	-2652
▁기분전환	-2653
▁마음으로	-2654
▁무엇이든	-2655
▁부럽네요	-2656
▁부모님이	-2657
▁사랑으로	-2658
▁썸남이랑	-2659
▁아름다운	-2660
▁아프네요	-2661
▁없나봐요	-2662
▁이별통보	-2663
▁일이네요	-2664
▁좋겠지만	-2665
▁좋아해요	-2666
▁중요하죠	-2667
▁피하세요	-2668
▁하루하루	-2669
▁하셨네요	-2670
▁환승이별	-2671
▁힘들겠지	-2672
▁남자친구와	-2673
▁생각이에요	-2674
▁습관이에요	-2675
▁알려주세요	-2676
▁적어보세요	-2677
▁힘들겠네요	-2678
▁고백해보세요	-2679
▁사용해보세요	-2680
▁필요하겠네요	-2681
▁힘들었겠어요	-2682
▁9	-2683
▁김	-2684
▁꿀	-2685
▁디	-2686
▁맡	-2687
▁백	-2688
▁벚	-2689
▁블	-2690
▁뽑	-2691
▁숙	-2692
▁싱	-2693
▁콩	-2694
▁푸	-2695
▁핑	-2696
가락	-2697
갈까	-2698
갔어	-2699
규직	-2700
기간	-2701
나면	-2702
달째	-2703
대폰	-2704
도록	-2705
듯이	-2706
래요	-2707
먹기	-2708
무원	-2709
부로	-2710
샤워	-2711
순위	-2712
시락	-2713
았던	-2714
오면	-2715
우면	-2716
유증	-2717
이니	-2718
인이	-2719
장면	-2720
제를	-2721
지게	-2722
포즈	-2723
하던	-2724
혼자	-2725
▁30	-2726
▁간접	-2727
▁겨울	-2728
▁고맙	-2729
▁공시	-2730
▁과거	-2731
▁과식	-2732
▁교양	-2733
▁글로	-2734
▁기술	-2735
▁남아	-2736
▁낫죠	-2737
▁내요	-2738
▁다되	-2739
▁달콤	-2740
▁됐네	-2741
▁떨리	-2742
▁마실	-2743
▁많을	-2744
▁맘에	-2745
▁맘이	-2746
▁맛난	-2747
▁매력	-2748
▁머릿	-2749
▁메뉴	-2750
▁면도	-2751
▁모아	-2752
▁목표	-2753
▁물리	-2754
▁밀당	-2755
▁반지	-2756
▁벚꽃	-2757
▁변명	-2758
▁보기	-2759
▁보니	-2760
▁보험	-2761
▁부딪	-2762
▁부자	-2763
▁빠르	-2764
▁선이	-2765
▁소비	-2766
▁심심	-2767
▁썸의	-2768
▁아껴	-2769
▁아쉬	-2770
▁애정	-2771
▁어찌	-2772
▁오네	-2773
▁오랫	-2774
▁외롭	-2775
▁용돈	-2776
▁용서	-2777
▁이뤄	-2778
▁이불	-2779
▁인기	-2780
▁있게	-2781
▁절약	-2782
▁죽고	-2783
▁중독	-2784
▁지칠	-2785
▁참고	-2786
▁청첩	-2787
▁파혼	-2788
▁편안	-2789
▁풀릴	-2790
▁한다	-2791
▁행운	-2792
▁향수	-2793
▁헬스	-2794
거같아	-2795
된다고	-2796
었으면	-2797
이라고	-2798
이라니	-2799
장에서	-2800
하기는	-2801
하는지	-2802
하다가	-2803
하자고	-2804
할게요	-2805
▁sns	-2806
▁건강에	-2807
▁공무원	-2808
▁관계가	-2809
▁귀여워	-2810
▁극복할	-2811
▁나에게	-2812
▁남자랑	-2813
▁노래방	-2814
▁달라지	-2815
▁도시락	-2816
▁됐는데	-2817
▁드라이	-2818
▁들어가	-2819
▁들어와	-2820
▁모습을	-2821
▁뭐라도	-2822
▁바쁘게	-2823
▁배고파	-2824
▁병원에	-2825
▁보내고	-2826
▁보이고	-2827
▁사귀기	-2828
▁사랑했	-2829
▁살아야	-2830
▁새벽에	-2831
▁선물은	-2832
▁세상에	-2833
▁시간도	-2834
▁시기가	-2835
▁아무렇	-2836
▁아프다	-2837
▁않는데	-2838
▁앞머리	-2839
▁억지로	-2840
▁여자랑	-2841
▁여전히	-2842
▁연애가	-2843
▁우세요	-2844
▁울어도	-2845
▁의사를	-2846
▁인생이	-2847
▁있다는	-2848
▁있어서	-2849
▁있으니	-2850
▁자격이	-2851
▁자신만	-2852
▁전화를	-2853
▁준비를	-2854
▁찾아가	-2855
▁친구의	-2856
▁태어난	-2857
▁표현이	-2858
▁피곤해	-2859
▁혼자만	-2860
▁혼자서	-2861
▁휴대폰	-2862
셔보세요	-2863
시겠어요	-2864
어주세요	-2865
해야할까	-2866
했겠어요	-2867
▁걱정하지	-2868
▁나가세요	-2869
▁내보세요	-2870
▁누군가를	-2871
▁따뜻하게	-2872
▁만나기로	-2873
▁만들어요	-2874
▁맞는걸까	-2875
▁보고싶다	-2876
▁생각하면	-2877
▁솔직하게	-2878
▁스트레칭	-2879
▁싶습니다	-2880
▁않겠지만	-2881
▁없겠네요	-2882
▁여자들은	-2883
▁여자한테	-2884
▁이별에는	-2885
▁잊으세요	-2886
▁잘했어요	-2887
▁점심시간	-2888
▁준비하는	-2889
▁하나봐요	-2890
▁했나봐요	-2891
▁걸어보세요	-2892
▁고백했는데	-2893
▁나눠보세요	-2894
▁남자친구랑	-2895
▁다녀오세요	-2896
▁다르겠지만	-2897
▁돌려보세요	-2898
▁믿어보세요	-2899
▁바쁜가봐요	-2900
▁스스로에게	-2901
▁좋아해주는	-2902
▁지금이라도	-2903
▁친구들이랑	-2904
▁필요하다면	-2905
▁힘든가봅니다	-2906
ᅮᅮ	-2907
▁겁	-2908
▁격	-2909
▁급	-2910
▁깜	-2911
▁꼼	-2912
▁끈	-2913
▁넓	-2914
▁녹	-2915
▁놈	-2916
▁닮	-2917
▁땀	-2918
▁띄	-2919
▁잇	-2920
▁찔	-2921
▁쳐	-2922
▁털	-2923
거죠	-2924
까봐	-2925
나고	-2926
나서	-2927
내는	-2928
냈어	-2929
너무	-2930
년의	-2931
다발	-2932
데이	-2933
되면	-2934
든지	-2935
따라	-2936
라리	-2937
라이	-2938
렌타	-2939
려구	-2940
려나	-2941
린다	-2942
받아	-2943
번호	-2944
보내	-2945
보니	-2946
분이	-2947
빼로	-2948
생숭	-2949
어두	-2950
정도	-2951
주려	-2952
지마	-2953
치기	-2954
터리	-2955
테리	-2956
하긴	-2957
하대	-2958
함을	-2959
▁ᅲᅲ	-2960
▁가도	-2961
▁감성	-2962
▁개강	-2963
▁거면	-2964
▁경쟁	-2965
▁곁에	-2966
▁그는	-2967
▁그대	-2968
▁기원	-2969
▁깨끗	-2970
▁남기	-2971
▁내리	-2972
▁노후	-2973
▁놀랐	-2974
▁눈치	-2975
▁늦은	-2976
▁답장	-2977
▁대출	-2978
▁데는	-2979
▁떠오	-2980
▁맛집	-2981
▁맞추	-2982
▁매달	-2983
▁명절	-2984
▁모른	-2985
▁몰래	-2986
▁못잊	-2987
▁무거	-2988
▁반가	-2989
▁받은	-2990
▁밝혀	-2991
▁버릴	-2992
▁별거	-2993
▁보다	-2994
▁봄이	-2995
▁빠를	-2996
▁사업	-2997
▁살기	-2998
▁삶을	-2999
▁생겨	-3000
▁샤워	-3001
▁성장	-3002
▁속에	-3003
▁수다	-3004
▁술마	-3005
▁술을	-3006
▁심경	-3007
▁싱숭	-3008
▁썸은	-3009
▁썸을	-3010
▁애들	-3011
▁어머	-3012
▁업무	-3013
▁없지	-3014
▁에휴	-3015
▁여름	-3016
▁염색	-3017
▁왔네	-3018
▁외모	-3019
▁유부	-3020
▁은연	-3021
▁의외	-3022
▁이미	-3023
▁인내	-3024
▁입을	-3025
▁잘되	-3026
▁장소	-3027
▁중인	-3028
▁지는	-3029
▁참는	-3030
▁콩깍	-3031
▁통해	-3032
▁투자	-3033
▁핑계	-3034
▁하다	-3035
▁하던	-3036
▁해보	-3037
▁회식	-3038
▁회원	-3039
▁휴식	-3040
▁흐르	-3041
갑니다	-3042
기세요	-3043
내세요	-3044
르세요	-3045
셨네요	-3046
시군요	-3047
왔는데	-3048
을거라	-3049
이었길	-3050
졌으면	-3051
줬는데	-3052
하기도	-3053
하느라	-3054
하는거	-3055
하지는	-3056
▁가끔은	-3057
▁가는데	-3058
▁감정의	-3059
▁거리를	-3060
▁결혼은	-3061
▁고민임	-3062
▁고백을	-3063
▁과정이	-3064
▁그만큼	-3065
▁꽃다발	-3066
▁나보다	-3067
▁나을까	-3068
▁나혼자	-3069
▁남자들	-3070
▁내려놓	-3071
▁너에게	-3072
▁노력하	-3073
▁달라진	-3074
▁답답한	-3075
▁답답해	-3076
▁도와줘	-3077
▁도움을	-3078
▁되는지	-3079
▁마시고	-3080
▁말하지	-3081
▁못해요	-3082
▁받으면	-3083
▁발렌타	-3084
▁배우는	-3085
▁보내는	-3086
▁보이지	-3087
▁복잡한	-3088
▁본인의	-3089
▁부분이	-3090
▁빼빼로	-3091
▁사진을	-3092
▁생겼네	-3093
▁솔직한	-3094
▁쉬어도	-3095
▁습관을	-3096
▁않아서	-3097
▁않을까	-3098
▁알아차	-3099
▁없을까	-3100
▁연애에	-3101
▁완벽한	-3102
▁왔으면	-3103
▁외로운	-3104
▁우리는	-3105
▁위로봇	-3106
▁이러지	-3107
▁이별도	-3108
▁이별에	-3109
▁이어나	-3110
▁이유는	-3111
▁이제야	-3112
▁이해가	-3113
▁인생을	-3114
▁일어났	-3115
▁일하는	-3116
▁있지요	-3117
▁자체가	-3118
▁재미가	-3119
▁정리를	-3120
▁정신차	-3121
▁좋으면	-3122
▁주말에	-3123
▁주말이	-3124
▁주변에	-3125
▁차라리	-3126
▁표현을	-3127
▁해주는	-3128
▁행복은	-3129
▁행복을	-3130
▁헤어질	-3131
▁현실을	-3132
▁현재를	-3133
▁회사는	-3134
겨보세요	-3135
▁가능해요	-3136
▁결혼하면	-3137
▁그녀에게	-3138
▁기다리면	-3139
▁기대세요	-3140
▁노력하는	-3141
▁다르겠죠	-3142
▁다음부터	-3143
▁두근거리	-3144
▁로맨틱한	-3145
▁마련이죠	-3146
▁마음대로	-3147
▁바쁘거나	-3148
▁상대에게	-3149
▁슬프네요	-3150
▁싱숭생숭	-3151
▁써보세요	-3152
▁않나봐요	-3153
▁알다가도	-3154
▁어려워요	-3155
▁어울리는	-3156
▁오랫동안	-3157
▁익숙해지	-3158
▁있었으면	-3159
▁있을까요	-3160
▁있을지도	-3161
▁정리하는	-3162
▁좋아했던	-3163
▁지났네요	-3164
▁직장에서	-3165
▁짝사랑은	-3166
▁타이밍이	-3167
▁프로포즈	-3168
▁해야할까	-3169
▁헤아리는	-3170
▁헤어졌네	-3171
▁헤어지면	-3172
▁헤어지지	-3173
▁현실적인	-3174
▁흔들리지	-3175
▁힘듭니다	-3176
으신가봐요	-3177
인가봅니다	-3178
▁감사합니다	-3179
▁고생했어요	-3180
▁골라보세요	-3181
▁되었습니다	-3182
▁드셔보세요	-3183
▁들어보세요	-3184
▁마련이에요	-3185
▁마지막으로	-3186
▁맞았나봐요	-3187
▁스트레스가	-3188
▁시어머니가	-3189
▁아니니까요	-3190
▁있더라고요	-3191
▁조금이라도	-3192
▁다가가보세요	-3193
▁로맨틱하네요	-3194
▁복잡하겠어요	-3195
▁부탁해보세요	-3196
▁여자친구에게	-3197
▁표현해보세요	-3198
▁A	-3199
▁널	-3200
▁년	-3201
▁늙	-3202
▁땡	-3203
▁봉	-3204
▁섬	-3205
▁씁	-3206
▁얻	-3207
▁옴	-3208
▁왕	-3209
▁왤	-3210
▁웬	-3211
▁젖	-3212
▁짱	-3213
▁폭	-3214
▁형	-3215
▁효	-3216
각이	-3217
걸로	-3218
겹살	-3219
공평	-3220
난다	-3221
답을	-3222
대한	-3223
도가	-3224
럽게	-3225
려서	-3226
만은	-3227
복이	-3228
부여	-3229
분들	-3230
선을	-3231
센터	-3232
셔요	-3233
숙사	-3234
스는	-3235
시원	-3236
었길	-3237
육아	-3238
이스	-3239
있어	-3240
정보	-3241
정을	-3242
제가	-3243
주면	-3244
지기	-3245
쳤어	-3246
통수	-3247
해진	-3248
활동	-3249
히는	-3250
▁가만	-3251
▁간단	-3252
▁감고	-3253
▁같지	-3254
▁걸리	-3255
▁걸어	-3256
▁구멍	-3257
▁귀가	-3258
▁그립	-3259
▁기간	-3260
▁기준	-3261
▁길러	-3262
▁깨요	-3263
▁나지	-3264
▁남은	-3265
▁너도	-3266
▁너를	-3267
▁느낄	-3268
▁다닐	-3269
▁다리	-3270
▁다정	-3271
▁단계	-3272
▁답이	-3273
▁되돌	-3274
▁들고	-3275
▁딸기	-3276
▁똑똑	-3277
▁라고	-3278
▁로또	-3279
▁많지	-3280
▁매너	-3281
▁멀리	-3282
▁멀어	-3283
▁메모	-3284
▁모자	-3285
▁무색	-3286
▁문신	-3287
▁뭐라	-3288
▁바다	-3289
▁반응	-3290
▁받으	-3291
▁보낼	-3292
▁봉사	-3293
▁봤어	-3294
▁비난	-3295
▁비정	-3296
▁비참	-3297
▁빌려	-3298
▁사면	-3299
▁상상	-3300
▁새해	-3301
▁성별	-3302
▁성향	-3303
▁센스	-3304
▁솔로	-3305
▁수는	-3306
▁수면	-3307
▁순수	-3308
▁술이	-3309
▁시키	-3310
▁신뢰	-3311
▁신중	-3312
▁실내	-3313
▁심리	-3314
▁싸워	-3315
▁아플	-3316
▁악몽	-3317
▁애교	-3318
▁어이	-3319
▁에너	-3320
▁여우	-3321
▁연속	-3322
▁왤케	-3323
▁운전	-3324
▁웃을	-3325
▁웬수	-3326
▁은퇴	-3327
▁의심	-3328
▁의욕	-3329
▁이직	-3330
▁인턴	-3331
▁일만	-3332
▁입어	-3333
▁잇몸	-3334
▁있기	-3335
▁자괴	-3336
▁잘지	-3337
▁잤어	-3338
▁적금	-3339
▁정상	-3340
▁주기	-3341
▁지갑	-3342
▁지도	-3343
▁지진	-3344
▁착한	-3345
▁참견	-3346
▁찾는	-3347
▁천재	-3348
▁체육	-3349
▁쳐다	-3350
▁치료	-3351
▁카드	-3352
▁큰일	-3353
▁통화	-3354
▁특별	-3355
▁하시	-3356
▁학생	-3357
▁한거	-3358
▁한숨	-3359
▁해봤	-3360
▁해외	-3361
▁허무	-3362
▁헛헛	-3363
▁후가	-3364
▁후에	-3365
가는데	-3366
개월이	-3367
개월째	-3368
겼는데	-3369
다는건	-3370
더라구	-3371
드리고	-3372
버렸네	-3373
봅시다	-3374
야할까	-3375
었네요	-3376
에게나	-3377
였는데	-3378
을텐데	-3379
이세요	-3380
점에서	-3381
하나봐	-3382
하라고	-3383
해야할	-3384
해하지	-3385
▁가벼운	-3386
▁가족이	-3387
▁강아지	-3388
▁같아서	-3389
▁걱정이	-3390
▁결혼할	-3391
▁고백할	-3392
▁그러고	-3393
▁그럼요	-3394
▁그리운	-3395
▁기숙사	-3396
▁기억이	-3397
▁기회를	-3398
▁끝났어	-3399
▁나만의	-3400
▁나쁘지	-3401
▁나아졌	-3402
▁나아질	-3403
▁나타날	-3404
▁남에게	-3405
▁누구든	-3406
▁눈치가	-3407
▁느끼는	-3408
▁늘어요	-3409
▁단단히	-3410
▁달콤한	-3411
▁당했어	-3412
▁대해서	-3413
▁돌아가	-3414
▁돌아올	-3415
▁두달이	-3416
▁들었어	-3417
▁따뜻할	-3418
▁마시면	-3419
▁만나도	-3420
▁만드는	-3421
▁만들고	-3422
▁많아서	-3423
▁맛나게	-3424
▁머리랑	-3425
▁머릿속	-3426
▁모든걸	-3427
▁모르게	-3428
▁뭐할까	-3429
▁불편해	-3430
▁사랑과	-3431
▁사랑도	-3432
▁사랑하	-3433
▁사야지	-3434
▁사이에	-3435
▁사정이	-3436
▁삼겹살	-3437
▁생기면	-3438
▁성공할	-3439
▁세상은	-3440
▁소화제	-3441
▁시작해	-3442
▁신나는	-3443
▁실수를	-3444
▁싶다고	-3445
▁썸인가	-3446
▁아까워	-3447
▁아니죠	-3448
▁아이돌	-3449
▁아침이	-3450
▁안되네	-3451
▁어떨까	-3452
▁없어도	-3453
▁여유가	-3454
▁여행도	-3455
▁연애로	-3456
▁영화관	-3457
▁오늘이	-3458
▁우연히	-3459
▁위해서	-3460
▁음식을	-3461
▁이루어	-3462
▁자격증	-3463
▁자신감	-3464
▁잘못된	-3465
▁잘못인	-3466
▁전화가	-3467
▁종교가	-3468
▁찾기를	-3469
▁청첩장	-3470
▁컨디션	-3471
▁하고싶	-3472
▁하는건	-3473
▁하늘을	-3474
▁하루도	-3475
▁하자고	-3476
▁현실의	-3477
▁혼자도	-3478
▁회사와	-3479
▁후회는	-3480
▁흐르고	-3481
렸나봐요	-3482
았습니다	-3483
하고싶어	-3484
하시군요	-3485
해야겠지	-3486
▁결혼해도	-3487
▁고백하는	-3488
▁고백하면	-3489
▁공부해서	-3490
▁관심사를	-3491
▁궁금해요	-3492
▁그렇다면	-3493
▁긍정적인	-3494
▁까먹었다	-3495
▁놀러가고	-3496
▁느낌이야	-3497
▁데이트를	-3498
▁드릴게요	-3499
▁마셔야지	-3500
▁말이네요	-3501
▁말해볼까	-3502
▁목소리를	-3503
▁미세먼지	-3504
▁사람들은	-3505
▁생겼으면	-3506
▁세상에서	-3507
▁싫어하는	-3508
▁아니지만	-3509
▁알아보고	-3510
▁어디까지	-3511
▁오늘따라	-3512
▁왔습니다	-3513
▁우선순위	-3514
▁유지하는	-3515
▁의미부여	-3516
▁이번에는	-3517
▁잠수이별	-3518
▁좋아하나	-3519
▁좋았는데	-3520
▁중입니다	-3521
▁줘보세요	-3522
▁짝녀에게	-3523
▁추천해요	-3524
▁해야겠다	-3525
▁해야할지	-3526
▁행복해지	-3527
▁헤어지자	-3528
▁회원정보	-3529
▁관리하세요	-3530
▁괜찮아졌길	-3531
▁기다리는게	-3532
▁다르겠지요	-3533
▁말해주세요	-3534
▁먹어보세요	-3535
▁물어보는게	-3536
▁받아보세요	-3537
▁보내주세요	-3538
▁사랑이네요	-3539
▁생각만해도	-3540
▁생각했는데	-3541
▁소식이네요	-3542
▁아무렇지도	-3543
▁읽어보세요	-3544
▁있나봅니다	-3545
▁좋아하는거	-3546
▁챙겨드세요	-3547
▁취해보세요	-3548
▁사람인가봐요	-3549
▁사랑했나봐요	-3550
▁생각했나봐요	-3551
▁여자친구한테	-3552
▁좋아하나봐요	-3553
▁노력하겠습니다	-3554
▁거기까지인가봐요	-3555
▁검	-3556
▁꽤	-3557
▁끌	-3558
▁끓	-3559
▁낙	-3560
▁니	-3561
▁땅	-3562
▁땐	-3563
▁레	-3564
▁며	-3565
▁브	-3566
▁빈	-3567
▁색	-3568
▁쌩	-3569
▁앉	-3570
▁쟁	-3571
▁짠	-3572
▁쪼	-3573
▁칼	-3574
▁탄	-3575
▁탔	-3576
▁활	-3577
▁휘	-3578
▁흥	-3579
간다	-3580
같지	-3581
기력	-3582
길이	-3583
나나	-3584
나네	-3585
났어	-3586
년간	-3587
년을	-3588
다른	-3589
담을	-3590
도를	-3591
되길	-3592
되지	-3593
드름	-3594
들지	-3595
라우	-3596
란게	-3597
랑이	-3598
렸을	-3599
료가	-3600
리러	-3601
만한	-3602
모습	-3603
비가	-3604
셔야	-3605
소음	-3606
수있	-3607
순간	-3608
스피	-3609
시키	-3610
쓰는	-3611
양이	-3612
였을	-3613
우스	-3614
이래	-3615
인다	-3616
일차	-3617
자를	-3618
장에	-3619
적령	-3620
종일	-3621
주도	-3622
지길	-3623
출발	-3624
침이	-3625
침표	-3626
콜릿	-3627
크닉	-3628
터가	-3629
토닥	-3630
트북	-3631
하철	-3632
호회	-3633
▁15	-3634
▁간사	-3635
▁강렬	-3636
▁거랑	-3637
▁거요	-3638
▁건조	-3639
▁검색	-3640
▁겨우	-3641
▁고칠	-3642
▁공개	-3643
▁그를	-3644
▁그저	-3645
▁기도	-3646
▁길어	-3647
▁깨닫	-3648
▁꿈은	-3649
▁끝도	-3650
▁끝에	-3651
▁끝인	-3652
▁나네	-3653
▁난방	-3654
▁남는	-3655
▁남지	-3656
▁냉정	-3657
▁너는	-3658
▁노는	-3659
▁놀죠	-3660
▁니가	-3661
▁단둘	-3662
▁달려	-3663
▁대리	-3664
▁덜할	-3665
▁덤덤	-3666
▁동성	-3667
▁든든	-3668
▁들이	-3669
▁때로	-3670
▁뛰어	-3671
▁마셨	-3672
▁막혀	-3673
▁말로	-3674
▁맛이	-3675
▁매주	-3676
▁멍청	-3677
▁못했	-3678
▁발목	-3679
▁버티	-3680
▁보게	-3681
▁봐서	-3682
▁부드	-3683
▁비싼	-3684
▁빠져	-3685
▁사겨	-3686
▁사내	-3687
▁살이	-3688
▁살지	-3689
▁상의	-3690
▁생리	-3691
▁서툴	-3692
▁섬유	-3693
▁성숙	-3694
▁세워	-3695
▁셀카	-3696
▁술만	-3697
▁신기	-3698
▁쓰지	-3699
▁아기	-3700
▁아깝	-3701
▁아쉽	-3702
▁알기	-3703
▁애를	-3704
▁약을	-3705
▁약이	-3706
▁어필	-3707
▁언니	-3708
▁오지	-3709
▁올해	-3710
▁와서	-3711
▁위기	-3712
▁유학	-3713
▁유효	-3714
▁의사	-3715
▁일년	-3716
▁입고	-3717
▁입지	-3718
▁있다	-3719
▁잡아	-3720
▁적게	-3721
▁전혀	-3722
▁정류	-3723
▁정의	-3724
▁제게	-3725
▁조건	-3726
▁종일	-3727
▁주식	-3728
▁줄까	-3729
▁줄어	-3730
▁즐겁	-3731
▁지울	-3732
▁지치	-3733
▁참지	-3734
▁책을	-3735
▁철벽	-3736
▁최근	-3737
▁축복	-3738
▁충격	-3739
▁침대	-3740
▁코스	-3741
▁키가	-3742
▁택배	-3743
▁패턴	-3744
▁포근	-3745
▁풀렸	-3746
▁풀어	-3747
▁했나	-3748
▁호의	-3749
▁확신	-3750
▁회복	-3751
▁흔적	-3752
▁흘러	-3753
▁흥미	-3754
라우마	-3755
보아요	-3756
보여요	-3757
야하나	-3758
에서도	-3759
였으면	-3760
유증이	-3761
이예요	-3762
인데이	-3763
인인데	-3764
적이야	-3765
지네요	-3766
하다는	-3767
할거라	-3768
해야죠	-3769
했더니	-3770
했지만	-3771
....	-3772
▁가능한	-3773
▁가능해	-3774
▁가만히	-3775
▁같다고	-3776
▁것처럼	-3777
▁결정은	-3778
▁경험이	-3779
▁계획을	-3780
▁고마워	-3781
▁그녀와	-3782
▁그럴까	-3783
▁그럴만	-3784
▁그렇죠	-3785
▁그분이	-3786
▁기억을	-3787
▁끝나고	-3788
▁남들이	-3789
▁노트북	-3790
▁느껴져	-3791
▁다음에	-3792
▁달달한	-3793
▁답장이	-3794
▁동료가	-3795
▁동호회	-3796
▁됐어요	-3797
▁되는게	-3798
▁될지도	-3799
▁뒤에서	-3800
▁떠나고	-3801
▁마음과	-3802
▁마침표	-3803
▁많으면	-3804
▁말라고	-3805
▁말하고	-3806
▁말해도	-3807
▁말해줘	-3808
▁맞는지	-3809
▁맞을까	-3810
▁멋져요	-3811
▁모든게	-3812
▁모른척	-3813
▁무기력	-3814
▁미련은	-3815
▁바라는	-3816
▁바라지	-3817
▁배우자	-3818
▁번호를	-3819
▁변하는	-3820
▁보는게	-3821
▁보여요	-3822
▁불공평	-3823
▁사는게	-3824
▁살아요	-3825
▁상담을	-3826
▁상대가	-3827
▁새출발	-3828
▁생각날	-3829
▁선물로	-3830
▁소리가	-3831
▁속상해	-3832
▁속에서	-3833
▁순간이	-3834
▁쉬어가	-3835
▁신경을	-3836
▁신경이	-3837
▁썸에서	-3838
▁아니고	-3839
▁아닐까	-3840
▁아름답	-3841
▁아빠가	-3842
▁아직은	-3843
▁아프지	-3844
▁아픔을	-3845
▁아픔의	-3846
▁앞두고	-3847
▁어렵네	-3848
▁없애는	-3849
▁여드름	-3850
▁여자는	-3851
▁여자와	-3852
▁여행가	-3853
▁연습이	-3854
▁영화보	-3855
▁오래된	-3856
▁우리가	-3857
▁우울해	-3858
▁운명이	-3859
▁이해해	-3860
▁인스타	-3861
▁일들이	-3862
▁일부터	-3863
▁일이죠	-3864
▁있을지	-3865
▁잊혀질	-3866
▁자세히	-3867
▁자체로	-3868
▁정도는	-3869
▁정리될	-3870
▁정말로	-3871
▁제주도	-3872
▁좋으시	-3873
▁중국어	-3874
▁증거를	-3875
▁지내는	-3876
▁지하철	-3877
▁차가워	-3878
▁처음에	-3879
▁초콜릿	-3880
▁출퇴근	-3881
▁친구도	-3882
▁키우고	-3883
▁태어났	-3884
▁피크닉	-3885
▁하네요	-3886
▁하려고	-3887
▁하루를	-3888
▁하지만	-3889
▁해야죠	-3890
▁해주고	-3891
▁했어요	-3892
▁확인해	-3893
▁환승은	-3894
▁힘내지	-3895
갈거예요	-3896
개월만에	-3897
이니까요	-3898
하니까요	-3899
하시네요	-3900
▁결혼적령	-3901
▁고백하고	-3902
▁그러게요	-3903
▁기다리지	-3904
▁남자한테	-3905
▁노력하면	-3906
▁답답하네	-3907
▁당연하죠	-3908
▁될거예요	-3909
▁듯합니다	-3910
▁모르는게	-3911
▁무시하는	-3912
▁물어봐요	-3913
▁미친듯이	-3914
▁별로라고	-3915
▁봉사활동	-3916
▁비교하지	-3917
▁빠를수록	-3918
▁사람인데	-3919
▁사랑에는	-3920
▁사이에서	-3921
▁사회생활	-3922
▁상처받지	-3923
▁생각할까	-3924
▁생각해도	-3925
▁성공하길	-3926
▁시원하게	-3927
▁신혼여행	-3928
▁아니네요	-3929
▁안되겠지	-3930
▁안되는데	-3931
▁엄마한테	-3932
▁연락처를	-3933
▁연애하고	-3934
▁이별하고	-3935
▁이제라도	-3936
▁있겠네요	-3937
▁있었나요	-3938
▁잡으세요	-3939
▁전화하는	-3940
▁좋을까요	-3941
▁준비하고	-3942
▁지금보다	-3943
▁취미생활	-3944
▁친구라고	-3945
▁카페에서	-3946
▁트라우마	-3947
▁표현하는	-3948
▁필요했을	-3949
▁하나라도	-3950
▁하루에도	-3951
▁행복해질	-3952
▁헤아리지	-3953
▁헤어짐을	-3954
▁혼자만의	-3955
▁화장하는	-3956
▁후유증이	-3957
▁힘들지요	-3958
▁가능합니다	-3959
▁간접적이든	-3960
▁그랬나봐요	-3961
▁기분전환을	-3962
▁누구에게나	-3963
▁다음부터는	-3964
▁떠나보세요	-3965
▁만남이었길	-3966
▁말씀하세요	-3967
▁맞을거예요	-3968
▁받아들이기	-3969
▁밝혀보세요	-3970
▁버텨보세요	-3971
▁보여주세요	-3972
▁부담스러운	-3973
▁사람이라면	-3974
▁생각해봐요	-3975
▁시작하세요	-3976
▁않았나봐요	-3977
▁억지로라도	-3978
▁이야기해도	-3979
▁정해보세요	-3980
▁좋아했는데	-3981
▁주기적으로	-3982
▁직접적이든	-3983
▁참아보세요	-3984
▁축하합니다	-3985
▁풀어보세요	-3986
▁하지마세요	-3987
▁힘들어하지	-3988
▁기다려주세요	-3989
▁발렌타인데이	-3990
▁사람이니까요	-3991
▁위로봇입니다	-3992
▁필요하겠어요	-3993
▁결정이었을텐데	-3994
▁거기까지였나봐요	-3995
00	-3996
▁곰	-3997
▁곱	-3998
▁광	-3999
▁낚	-4000
▁낳	-4001
▁낼	-4002
▁닫	-4003
▁득	-4004
▁롱	-4005
▁묻	-4006
▁밖	-4007
▁벽	-4008
▁쉴	-4009
▁슈	-4010
▁씨	-4011
▁액	-4012
▁옳	-4013
▁임	-4014
▁찜	-4015
▁찼	-4016
▁황	-4017
▁흑	-4018
거같	-4019
거지	-4020
건데	-4021
겠음	-4022
겨워	-4023
곰히	-4024
관계	-4025
관리	-4026
교통	-4027
근차	-4028
기업	-4029
끄러	-4030
끼리	-4031
났네	-4032
대체	-4033
대회	-4034
도는	-4035
돌아	-4036
돼서	-4037
듯한	-4038
라서	-4039
로리	-4040
만나	-4041
매일	-4042
면증	-4043
바이	-4044
바퀴	-4045
벤트	-4046
상담	-4047
선물	-4048
세포	-4049
수가	-4050
수를	-4051
수증	-4052
심을	-4053
였던	-4054
와서	-4055
와요	-4056
이크	-4057
인상	-4058
작정	-4059
잖아	-4060
저리	-4061
절한	-4062
젯밤	-4063
졌네	-4064
조심	-4065
지런	-4066
지죠	-4067
질방	-4068
짐에	-4069
청소	-4070
카드	-4071
터디	-4072
트업	-4073
트콘	-4074
표현	-4075
하자	-4076
학기	-4077
한잔	-4078
해를	-4079
했길	-4080
행기	-4081
형이	-4082
화가	-4083
히려	-4084
▁가늠	-4085
▁가득	-4086
▁가려	-4087
▁가을	-4088
▁갈때	-4089
▁감당	-4090
▁감히	-4091
▁갔어	-4092
▁강습	-4093
▁갖지	-4094
▁거둘	-4095
▁것들	-4096
▁고고	-4097
▁고기	-4098
▁고장	-4099
▁고치	-4100
▁공감	-4101
▁관련	-4102
▁귀를	-4103
▁금연	-4104
▁기프	-4105
▁깊게	-4106
▁깜빡	-4107
▁꾸며	-4108
▁끝날	-4109
▁나누	-4110
▁나빠	-4111
▁낭비	-4112
▁넘어	-4113
▁놀다	-4114
▁누굴	-4115
▁눈썹	-4116
▁느낀	-4117
▁늦어	-4118
▁단순	-4119
▁단호	-4120
▁대답	-4121
▁대우	-4122
▁대중	-4123
▁대체	-4124
▁도망	-4125
▁동감	-4126
▁득템	-4127
▁들리	-4128
▁들을	-4129
▁때려	-4130
▁로봇	-4131
▁막차	-4132
▁많네	-4133
▁많다	-4134
▁말아	-4135
▁말한	-4136
▁망가	-4137
▁맞지	-4138
▁맞춤	-4139
▁매번	-4140
▁먹지	-4141
▁며칠	-4142
▁몇일	-4143
▁모으	-4144
▁무릎	-4145
▁뭐하	-4146
▁바디	-4147
▁밤에	-4148
▁베풀	-4149
▁변해	-4150
▁보름	-4151
▁부부	-4152
▁분노	-4153
▁분들	-4154
▁불타	-4155
▁빠른	-4156
▁빼고	-4157
▁살면	-4158
▁삶의	-4159
▁서류	-4160
▁성덕	-4161
▁성적	-4162
▁성형	-4163
▁소액	-4164
▁소유	-4165
▁소주	-4166
▁속은	-4167
▁수염	-4168
▁수영	-4169
▁수학	-4170
▁쉬어	-4171
▁쉽진	-4172
▁슈퍼	-4173
▁스테	-4174
▁스팸	-4175
▁슬픔	-4176
▁실례	-4177
▁싸움	-4178
▁쌩얼	-4179
▁썸만	-4180
▁썸일	-4181
▁썼어	-4182
▁씻고	-4183
▁아님	-4184
▁아련	-4185
▁아물	-4186
▁아주	-4187
▁안가	-4188
▁안에	-4189
▁알뜰	-4190
▁애석	-4191
▁애틋	-4192
▁어둠	-4193
▁어떠	-4194
▁연휴	-4195
▁예전	-4196
▁오락	-4197
▁오토	-4198
▁온다	-4199
▁올까	-4200
▁옷이	-4201
▁왕따	-4202
▁요구	-4203
▁요금	-4204
▁욕심	-4205
▁우린	-4206
▁운을	-4207
▁웃어	-4208
▁육아	-4209
▁음식	-4210
▁의견	-4211
▁이것	-4212
▁이뻐	-4213
▁이쁜	-4214
▁인공	-4215
▁일단	-4216
▁일에	-4217
▁잃어	-4218
▁입이	-4219
▁자는	-4220
▁자면	-4221
▁자취	-4222
▁잠재	-4223
▁잡는	-4224
▁전세	-4225
▁전역	-4226
▁점은	-4227
▁점이	-4228
▁조용	-4229
▁조차	-4230
▁조카	-4231
▁좋게	-4232
▁좋고	-4233
▁주름	-4234
▁중고	-4235
▁증오	-4236
▁지냈	-4237
▁지키	-4238
▁진지	-4239
▁짧지	-4240
▁찌질	-4241
▁차갑	-4242
▁차례	-4243
▁참아	-4244
▁창업	-4245
▁책임	-4246
▁초기	-4247
▁추석	-4248
▁추운	-4249
▁치고	-4250
▁치맥	-4251
▁치열	-4252
▁치유	-4253
▁키워	-4254
▁타기	-4255
▁타던	-4256
▁탈출	-4257
▁탈퇴	-4258
▁티가	-4259
▁티를	-4260
▁평가	-4261
▁평온	-4262
▁표시	-4263
▁푸는	-4264
▁필름	-4265
▁하든	-4266
▁학점	-4267
▁한강	-4268
▁합격	-4269
▁해낼	-4270
▁했다	-4271
▁허리	-4272
▁형편	-4273
▁혼란	-4274
▁혼술	-4275
▁화내	-4276
▁희생	-4277
▁힘껏	-4278
것같아	-4279
겠는데	-4280
교통을	-4281
근차근	-4282
년만에	-4283
년이란	-4284
되는데	-4285
들에게	-4286
방법을	-4287
봐야지	-4288
생활이	-4289
셨군요	-4290
스러울	-4291
스크림	-4292
스피싱	-4293
시간이	-4294
심으로	-4295
었나봐	-4296
영수증	-4297
우니까	-4298
으려면	-4299
이겠죠	-4300
인건가	-4301
적이고	-4302
적이죠	-4303
졌는데	-4304
지말고	-4305
하더니	-4306
하려는	-4307
할거야	-4308
할까봐	-4309
해주면	-4310
했나봐	-4311
▁가사가	-4312
▁가짐에	-4313
▁각자의	-4314
▁감정은	-4315
▁갔는데	-4316
▁거울을	-4317
▁걱정은	-4318
▁건가요	-4319
▁건강이	-4320
▁걸까요	-4321
▁것들이	-4322
▁견디고	-4323
▁결정할	-4324
▁경우가	-4325
▁경우도	-4326
▁계절이	-4327
▁고맙다	-4328
▁곰곰히	-4329
▁괴로워	-4330
▁괴롭게	-4331
▁군침이	-4332
▁궁금할	-4333
▁권태기	-4334
▁귀엽게	-4335
▁그러는	-4336
▁그분의	-4337
▁기간이	-4338
▁기대가	-4339
▁기분은	-4340
▁길에서	-4341
▁끝났네	-4342
▁나가기	-4343
▁낫겠지	-4344
▁내일도	-4345
▁너무나	-4346
▁넘었네	-4347
▁노래를	-4348
▁놀아줘	-4349
▁누구도	-4350
▁능력을	-4351
▁당연히	-4352
▁대화가	-4353
▁더러워	-4354
▁도네요	-4355
▁도대체	-4356
▁도와주	-4357
▁도전해	-4358
▁되겠지	-4359
▁두근거	-4360
▁두번째	-4361
▁드시고	-4362
▁듣는데	-4363
▁떠보는	-4364
▁뜻대로	-4365
▁마주쳐	-4366
▁마주치	-4367
▁만나길	-4368
▁만나러	-4369
▁만남과	-4370
▁만남이	-4371
▁말투가	-4372
▁맛있을	-4373
▁망했어	-4374
▁머리는	-4375
▁멋지게	-4376
▁모아서	-4377
▁못하면	-4378
▁무거워	-4379
▁무엇을	-4380
▁무작정	-4381
▁문제는	-4382
▁문제로	-4383
▁미래에	-4384
▁바쁘면	-4385
▁방법을	-4386
▁배우면	-4387
▁버려야	-4388
▁변하지	-4389
▁별로야	-4390
▁보면서	-4391
▁보아요	-4392
▁보이는	-4393
▁부딪혔	-4394
▁부지런	-4395
▁불면증	-4396
▁비행기	-4397
▁사귀면	-4398
▁사람만	-4399
▁살면서	-4400
▁상처는	-4401
▁새학기	-4402
▁생리통	-4403
▁서로가	-4404
▁선배가	-4405
▁성공을	-4406
▁소식이	-4407
▁소심해	-4408
▁술먹고	-4409
▁쉬어야	-4410
▁스터디	-4411
▁시간에	-4412
▁시간표	-4413
▁실수할	-4414
▁싫다고	-4415
▁심경의	-4416
▁싸우면	-4417
▁아닌거	-4418
▁아프고	-4419
▁아픔이	-4420
▁안경테	-4421
▁안녕히	-4422
▁않지만	-4423
▁알았어	-4424
▁약속을	-4425
▁양해를	-4426
▁얘기를	-4427
▁어디로	-4428
▁어젯밤	-4429
▁언제든	-4430
▁얼굴이	-4431
▁없겠지	-4432
▁없는게	-4433
▁없지만	-4434
▁영원한	-4435
▁오히려	-4436
▁월급이	-4437
▁월요일	-4438
▁의미가	-4439
▁의미를	-4440
▁의외로	-4441
▁의욕이	-4442
▁이벤트	-4443
▁이해할	-4444
▁인상이	-4445
▁일어날	-4446
▁있는거	-4447
▁있어야	-4448
▁자괴감	-4449
▁자기도	-4450
▁자신과	-4451
▁자존감	-4452
▁잘해야	-4453
▁재회를	-4454
▁접어두	-4455
▁정규직	-4456
▁좋아질	-4457
▁준비중	-4458
▁중요할	-4459
▁지겨워	-4460
▁지나간	-4461
▁진심이	-4462
▁집중이	-4463
▁집착해	-4464
▁짜장면	-4465
▁찜질방	-4466
▁차이가	-4467
▁찾아오	-4468
▁첫인상	-4469
▁최근에	-4470
▁최대한	-4471
▁최선을	-4472
▁추억은	-4473
▁치과에	-4474
▁커피향	-4475
▁타다가	-4476
▁태어나	-4477
▁택시비	-4478
▁터놓고	-4479
▁퇴근길	-4480
▁특별한	-4481
▁파먹기	-4482
▁피부가	-4483
▁하거나	-4484
▁하루가	-4485
▁하루에	-4486
▁학원을	-4487
▁행동이	-4488
▁화이트	-4489
▁회사에	-4490
▁휴가가	-4491
▁휴식을	-4492
▁흥미를	-4493
▁힘든데	-4494
▁힘들고	-4495
되겠네요	-4496
버리세요	-4497
야하는데	-4498
었겠네요	-4499
었습니다	-4500
왔습니다	-4501
의하세요	-4502
▁가능할까	-4503
▁고민하게	-4504
▁고쳐쓰는	-4505
▁공부하기	-4506
▁공허함이	-4507
▁괜찮다면	-4508
▁괜찮지만	-4509
▁그럴지도	-4510
▁그만하고	-4511
▁기프트콘	-4512
▁깨끗하게	-4513
▁끝났으면	-4514
▁나을지도	-4515
▁나한테만	-4516
▁남사친이	-4517
▁노력하고	-4518
▁다가가는	-4519
▁다양하게	-4520
▁당신에게	-4521
▁돌아가고	-4522
▁드라이브	-4523
▁만들려고	-4524
▁말해봐요	-4525
▁맛있어요	-4526
▁매일매일	-4527
▁먹었는데	-4528
▁물어보고	-4529
▁받아보는	-4530
▁부드럽게	-4531
▁비밀번호	-4532
▁사귀어도	-4533
▁사랑받고	-4534
▁사랑하기	-4535
▁사보세요	-4536
▁사이인데	-4537
▁상대방도	-4538
▁생각나고	-4539
▁선생님이	-4540
▁세상에는	-4541
▁센스있는	-4542
▁셀프웨딩	-4543
▁소개시켜	-4544
▁스타트업	-4545
▁시작해도	-4546
▁신경쓰는	-4547
▁실수하지	-4548
▁싫어하지	-4549
▁싸우면서	-4550
▁아니라는	-4551
▁않겠어요	-4552
▁애정표현	-4553
▁언제까지	-4554
▁얼마든지	-4555
▁여자들이	-4556
▁연락해서	-4557
▁오락가락	-4558
▁오토바이	-4559
▁운동으로	-4560
▁응원해요	-4561
▁의미있는	-4562
▁이기적인	-4563
▁이야기해	-4564
▁익숙해질	-4565
▁인정받고	-4566
▁잊는다는	-4567
▁전남친이	-4568
▁좋습니다	-4569
▁좋아하지	-4570
▁지나갔길	-4571
▁진정으로	-4572
▁집안일을	-4573
▁집착하는	-4574
▁차근차근	-4575
▁차리세요	-4576
▁차분하게	-4577
▁처음부터	-4578
▁처음에는	-4579
▁첫사랑이	-4580
▁체육대회	-4581
▁추억으로	-4582
▁추천해줘	-4583
▁포기하는	-4584
▁하루종일	-4585
▁학교에서	-4586
▁행복하길	-4587
▁행복할까	-4588
▁혼자서도	-4589
▁회사에는	-4590
▁힘들지도	-4591
드려보세요	-4592
했나봅니다	-4593
▁꾸며보세요	-4594
▁달라지는게	-4595
▁대중교통을	-4596
▁되었나봐요	-4597
▁들여보세요	-4598
▁마음이라도	-4599
▁많은가봐요	-4600
▁못했나봐요	-4601
▁벗어나세요	-4602
▁보이스피싱	-4603
▁붙여보세요	-4604
▁빌려보세요	-4605
▁사랑한다는	-4606
▁사랑할수록	-4607
▁상관없어요	-4608
▁선택일거라	-4609
▁스트레칭을	-4610
▁습관이네요	-4611
▁신고하세요	-4612
▁심하겠네요	-4613
▁심한가봐요	-4614
▁아니랍니다	-4615
▁아닌가봐요	-4616
▁아이스크림	-4617
▁안녕하세요	-4618
▁안타깝네요	-4619
▁않을거예요	-4620
▁올려달라고	-4621
▁웃어보세요	-4622
▁재미있어요	-4623
▁정류장에서	-4624
▁좋아한다고	-4625
▁준비하세요	-4626
▁줄여보세요	-4627
▁집중하세요	-4628
▁청해보세요	-4629
▁추천합니다	-4630
▁충전하세요	-4631
▁헤어지는게	-4632
▁헤어지세요	-4633
▁현금영수증	-4634
▁화이트데이	-4635
▁힘들거예요	-4636
▁걱정되겠네요	-4637
▁남자친구한테	-4638
▁시간이겠네요	-4639
▁연습해보세요	-4640
▁예민한가봐요	-4641
▁이별했습니다	-4642
▁이용해주세요	-4643
▁정리해보세요	-4644
▁좋아할거예요	-4645
▁피곤한가봐요	-4646
▁필요한가봐요	-4647
▁힘드신가봐요	-4648
▁두근거리겠어요	-4649
▁부지런하시네요	-4650
▁심호흡해보세요	-4651
.?	-4652
ᄏᄏ	-4653
▁긁	-4654
▁꾹	-4655
▁끼	-4656
▁뉴	-4657
▁덕	-4658
▁떡	-4659
▁똥	-4660
▁랜	-4661
▁밑	-4662
▁밟	-4663
▁북	-4664
▁빚	-4665
▁빵	-4666
▁삐	-4667
▁승	-4668
▁씌	-4669
▁엉	-4670
▁엮	-4671
▁옥	-4672
▁왠	-4673
▁쪽	-4674
▁쫌	-4675
▁층	-4676
▁켜	-4677
▁쿨	-4678
▁탓	-4679
▁팀	-4680
▁퍼	-4681
▁헌	-4682
▁훈	-4683
갔네	-4684
걸요	-4685
게임	-4686
고가	-4687
김에	-4688
나가	-4689
난거	-4690
난히	-4691
냐구	-4692
노래	-4693
능에	-4694
다리	-4695
달콩	-4696
담화	-4697
동산	-4698
되기	-4699
두절	-4700
드가	-4701
드시	-4702
레스	-4703
력은	-4704
련만	-4705
롭게	-4706
르네	-4707
모가	-4708
무게	-4709
문이	-4710
버려	-4711
버리	-4712
버시	-4713
봤어	-4714
분간	-4715
사는	-4716
사에	-4717
살이	-4718
생각	-4719
서야	-4720
셨나	-4721
수저	-4722
숭숭	-4723
식에	-4724
심한	-4725
쏟아	-4726
았네	-4727
았다	-4728
연제	-4729
였나	-4730
오를	-4731
와의	-4732
왔네	-4733
우는	-4734
우니	-4735
웠을	-4736
으려	-4737
으며	-4738
은거	-4739
을때	-4740
의금	-4741
있나	-4742
있음	-4743
있지	-4744
저분	-4745
정리	-4746
조절	-4747
조차	-4748
주째	-4749
줘야	-4750
증을	-4751
진다	-4752
질이	-4753
참고	-4754
카락	-4755
트가	-4756
플라	-4757
하실	-4758
한번	-4759
히네	-4760
힌다	-4761
▁20	-4762
▁ᄒᄒ	-4763
▁가라	-4764
▁가볍	-4765
▁가스	-4766
▁간식	-4767
▁감수	-4768
▁감싸	-4769
▁갚아	-4770
▁개념	-4771
▁거는	-4772
▁걸려	-4773
▁걸린	-4774
▁것만	-4775
▁격려	-4776
▁경제	-4777
▁곳을	-4778
▁괜한	-4779
▁괴로	-4780
▁구분	-4781
▁구속	-4782
▁그가	-4783
▁기댈	-4784
▁길게	-4785
▁길은	-4786
▁김치	-4787
▁꺼내	-4788
▁꼼꼼	-4789
▁꿈같	-4790
▁끄는	-4791
▁끓여	-4792
▁끝낼	-4793
▁끝일	-4794
▁나날	-4795
▁나약	-4796
▁낚시	-4797
▁남길	-4798
▁낭만	-4799
▁내게	-4800
▁내기	-4801
▁내내	-4802
▁높아	-4803
▁눈은	-4804
▁능력	-4805
▁늦는	-4806
▁늦잠	-4807
▁다짐	-4808
▁다툼	-4809
▁단톡	-4810
▁담긴	-4811
▁더욱	-4812
▁돈은	-4813
▁되기	-4814
▁듣기	-4815
▁들까	-4816
▁들려	-4817
▁들면	-4818
▁등산	-4819
▁등을	-4820
▁떠났	-4821
▁떨쳐	-4822
▁랜선	-4823
▁리폼	-4824
▁만에	-4825
▁맘을	-4826
▁맞나	-4827
▁먹으	-4828
▁먼지	-4829
▁면허	-4830
▁명품	-4831
▁모를	-4832
▁모쏠	-4833
▁모임	-4834
▁목이	-4835
▁몸에	-4836
▁무관	-4837
▁무의	-4838
▁무한	-4839
▁물건	-4840
▁뭐임	-4841
▁미용	-4842
▁미칠	-4843
▁미화	-4844
▁바늘	-4845
▁바지	-4846
▁반갑	-4847
▁받기	-4848
▁방문	-4849
▁배울	-4850
▁버리	-4851
▁번씩	-4852
▁벌고	-4853
▁벽에	-4854
▁변한	-4855
▁보단	-4856
▁보며	-4857
▁복전	-4858
▁봄은	-4859
▁부디	-4860
▁부여	-4861
▁불금	-4862
▁비하	-4863
▁빠졌	-4864
▁빨래	-4865
▁뽑기	-4866
▁사냐	-4867
▁사탕	-4868
▁살찐	-4869
▁상메	-4870
▁서툰	-4871
▁설렜	-4872
▁설명	-4873
▁세월	-4874
▁손에	-4875
▁손톱	-4876
▁손해	-4877
▁수상	-4878
▁수업	-4879
▁수준	-4880
▁술은	-4881
▁숨막	-4882
▁슬쩍	-4883
▁시골	-4884
▁시도	-4885
▁식단	-4886
▁신발	-4887
▁심어	-4888
▁썸인	-4889
▁쓸쓸	-4890
▁씁쓸	-4891
▁아마	-4892
▁아팠	-4893
▁안주	-4894
▁알지	-4895
▁알콩	-4896
▁애기	-4897
▁양말	-4898
▁어깨	-4899
▁어른	-4900
▁어리	-4901
▁염탐	-4902
▁예감	-4903
▁올랐	-4904
▁옷을	-4905
▁와닿	-4906
▁왜그	-4907
▁요리	-4908
▁웃겨	-4909
▁유행	-4910
▁은행	-4911
▁이모	-4912
▁이틀	-4913
▁일반	-4914
▁읽씹	-4915
▁입에	-4916
▁있음	-4917
▁자도	-4918
▁작아	-4919
▁잔인	-4920
▁잘살	-4921
▁잘자	-4922
▁쟁취	-4923
▁적어	-4924
▁적이	-4925
▁전기	-4926
▁전해	-4927
▁제안	-4928
▁좋으	-4929
▁주차	-4930
▁주택	-4931
▁지낼	-4932
▁지루	-4933
▁지옥	-4934
▁진행	-4935
▁질질	-4936
▁짐을	-4937
▁집앞	-4938
▁짧게	-4939
▁찍고	-4940
▁착잡	-4941
▁참석	-4942
▁참을	-4943
▁처럼	-4944
▁첫눈	-4945
▁추스	-4946
▁층간	-4947
▁치매	-4948
▁치워	-4949
▁컴퓨	-4950
▁코가	-4951
▁타다	-4952
▁털어	-4953
▁특징	-4954
▁틀린	-4955
▁티내	-4956
▁편의	-4957
▁포장	-4958
▁표정	-4959
▁피자	-4960
▁한가	-4961
▁한계	-4962
▁한국	-4963
▁한창	-4964
▁한켠	-4965
▁할줄	-4966
▁해줄	-4967
▁호칭	-4968
▁흑역	-4969
거겠죠	-4970
겠다고	-4971
끄러워	-4972
납니다	-4973
냈어요	-4974
년연애	-4975
느냐에	-4976
데이트	-4977
라는게	-4978
릅니다	-4979
받았어	-4980
보다는	-4981
생인데	-4982
셔야죠	-4983
식하는	-4984
신가요	-4985
았으면	-4986
었나요	-4987
유연제	-4988
이라서	-4989
인걸까	-4990
인데요	-4991
정적인	-4992
지세요	-4993
집니다	-4994
터리가	-4995
테리어	-4996
하겠지	-4997
한건가	-4998
해졌어	-4999
해주지	-5000
했네요	-5001
▁가까운	-5002
▁강렬한	-5003
▁거라고	-5004
▁거절의	-5005
▁걱정할	-5006
▁것들을	-5007
▁게임을	-5008
▁고마운	-5009
▁고백은	-5010
▁고치고	-5011
▁공부할	-5012
▁그러게	-5013
▁그리울	-5014
▁그리움	-5015
▁긁었어	-5016
▁금수저	-5017
▁기다렸	-5018
▁기다림	-5019
▁기대를	-5020
▁기본이	-5021
▁기억의	-5022
▁끝내고	-5023
▁끝인가	-5024
▁나가야	-5025
▁나갔어	-5026
▁남자도	-5027
▁너한테	-5028
▁누구랑	-5029
▁눈에서	-5030
▁다가오	-5031
▁다르죠	-5032
▁단둘이	-5033
▁달려있	-5034
▁당분간	-5035
▁당연한	-5036
▁대화로	-5037
▁되는거	-5038
▁뒤숭숭	-5039
▁뒤통수	-5040
▁뒷담화	-5041
▁드리고	-5042
▁드시면	-5043
▁들어도	-5044
▁들어서	-5045
▁들어올	-5046
▁들어줄	-5047
▁들으면	-5048
▁때문일	-5049
▁때예요	-5050
▁똑같아	-5051
▁마셔도	-5052
▁마실까	-5053
▁마음만	-5054
▁만나요	-5055
▁만나자	-5056
▁만남에	-5057
▁말했어	-5058
▁망했다	-5059
▁맞는거	-5060
▁맞아요	-5061
▁맞춤법	-5062
▁매력이	-5063
▁먹었어	-5064
▁먹자고	-5065
▁먼지가	-5066
▁멀어진	-5067
▁목소리	-5068
▁몸무게	-5069
▁못참고	-5070
▁못해서	-5071
▁못했던	-5072
▁물리적	-5073
▁뭐하는	-5074
▁미끄러	-5075
▁미련도	-5076
▁믿음을	-5077
▁바꿀까	-5078
▁바뀌게	-5079
▁바르고	-5080
▁바빠도	-5081
▁바빠서	-5082
▁밖에서	-5083
▁반응이	-5084
▁받아야	-5085
▁배고프	-5086
▁버텨요	-5087
▁베터리	-5088
▁보냈어	-5089
▁보자고	-5090
▁볼게요	-5091
▁봤는데	-5092
▁부탁드	-5093
▁빌어요	-5094
▁빠지는	-5095
▁뻔했어	-5096
▁사겨도	-5097
▁사귀던	-5098
▁사라질	-5099
▁살아가	-5100
▁상사가	-5101
▁상처도	-5102
▁서운해	-5103
▁서툴러	-5104
▁선에서	-5105
▁선택할	-5106
▁선톡을	-5107
▁세상이	-5108
▁소원을	-5109
▁속도를	-5110
▁슬프게	-5111
▁습관이	-5112
▁시계는	-5113
▁신경써	-5114
▁싫어도	-5115
▁심장이	-5116
▁싶다는	-5117
▁싸우는	-5118
▁아무말	-5119
▁아픔은	-5120
▁안하지	-5121
▁않는게	-5122
▁어디든	-5123
▁어려울	-5124
▁어렵죠	-5125
▁어렸을	-5126
▁어리게	-5127
▁어제와	-5128
▁어쩔수	-5129
▁없는거	-5130
▁여자도	-5131
▁여행은	-5132
▁연락오	-5133
▁연락할	-5134
▁연애의	-5135
▁연인은	-5136
▁옆에서	-5137
▁예민한	-5138
▁오빠가	-5139
▁요즘은	-5140
▁우리집	-5141
▁유난히	-5142
▁유부남	-5143
▁이기적	-5144
▁이름이	-5145
▁인연은	-5146
▁입어도	-5147
▁있었을	-5148
▁잘못을	-5149
▁잘못이	-5150
▁재밌는	-5151
▁재밌다	-5152
▁재밌어	-5153
▁재회는	-5154
▁정도로	-5155
▁존재를	-5156
▁좋을지	-5157
▁좋지요	-5158
▁주면서	-5159
▁주제를	-5160
▁줄어들	-5161
▁지나가	-5162
▁지나면	-5163
▁지내길	-5164
▁지르고	-5165
▁지우고	-5166
▁지저분	-5167
▁짜증날	-5168
▁차갑게	-5169
▁차별해	-5170
▁차이는	-5171
▁찾아온	-5172
▁추억에	-5173
▁축의금	-5174
▁친구네	-5175
▁친구는	-5176
▁친구와	-5177
▁친해지	-5178
▁친해질	-5179
▁카톡을	-5180
▁카톡이	-5181
▁편하고	-5182
▁평소에	-5183
▁프라이	-5184
▁프로필	-5185
▁피해를	-5186
▁하기도	-5187
▁하는지	-5188
▁하다가	-5189
▁하우스	-5190
▁한다는	-5191
▁한숨만	-5192
▁함께한	-5193
▁함께할	-5194
▁함부로	-5195
▁해보고	-5196
▁해야돼	-5197
▁해야할	-5198
▁행운을	-5199
▁현실과	-5200
▁혼자인	-5201
▁화장품	-5202
▁후회를	-5203
▁휴가를	-5204
▁힘든거	-5205
러보세요	-5206
뿐이에요	-5207
셨겠어요	-5208
시겠네요	-5209
지겠네요	-5210
테니까요	-5211
해야겠다	-5212
해야하는	-5213
해지세요	-5214
▁가능하면	-5215
▁가야겠죠	-5216
▁가치관이	-5217
▁거르세요	-5218
▁것입니다	-5219
▁결정이었	-5220
▁관리하는	-5221
▁권태기가	-5222
▁그대로의	-5223
▁기대하지	-5224
▁기억에서	-5225
▁나가볼까	-5226
▁나아졌길	-5227
▁낭비하지	-5228
▁놀이동산	-5229
▁달라진게	-5230
▁대화하는	-5231
▁도전하는	-5232
▁두려움을	-5233
▁두셨네요	-5234
▁들어왔어	-5235
▁떠오르는	-5236
▁마음정리	-5237
▁마주치는	-5238
▁만나는데	-5239
▁만들어서	-5240
▁맞추세요	-5241
▁머리카락	-5242
▁먹으면서	-5243
▁모르겠네	-5244
▁못하는게	-5245
▁물어보면	-5246
▁미워하지	-5247
▁미치겠네	-5248
▁미치겠어	-5249
▁믿으세요	-5250
▁받아들일	-5251
▁보고싶네	-5252
▁보이네요	-5253
▁비난하지	-5254
▁사랑해요	-5255
▁살다보면	-5256
▁상대방에	-5257
▁생각으로	-5258
▁생각해서	-5259
▁생겼네요	-5260
▁생일이네	-5261
▁서류에서	-5262
▁선택이길	-5263
▁성공하고	-5264
▁수학여행	-5265
▁시작이죠	-5266
▁시작하기	-5267
▁신경쓰여	-5268
▁신중하게	-5269
▁심호흡을	-5270
▁쓰레기야	-5271
▁아는데도	-5272
▁아니었을	-5273
▁아닌가요	-5274
▁알콩달콩	-5275
▁어떻게든	-5276
▁어떻게해	-5277
▁언젠가는	-5278
▁없겠지요	-5279
▁여사친이	-5280
▁연락두절	-5281
▁연애하는	-5282
▁연애하면	-5283
▁연인으로	-5284
▁오늘부터	-5285
▁왔나봐요	-5286
▁운명적인	-5287
▁이별이란	-5288
▁이별준비	-5289
▁이상형은	-5290
▁이상형이	-5291
▁이어나가	-5292
▁인생이죠	-5293
▁인정하고	-5294
▁일어나는	-5295
▁일어나서	-5296
▁있었는데	-5297
▁있으니까	-5298
▁있을게요	-5299
▁잊으려고	-5300
▁잊혀지지	-5301
▁자신으로	-5302
▁자유로워	-5303
▁자존감을	-5304
▁잘하는게	-5305
▁잘해주는	-5306
▁재미없어	-5307
▁재미있게	-5308
▁적응해야	-5309
▁정리하고	-5310
▁정확하게	-5311
▁좋았으면	-5312
▁좋으련만	-5313
▁주변에서	-5314
▁주식으로	-5315
▁중요한데	-5316
▁즐기면서	-5317
▁짝남에게	-5318
▁짝사랑을	-5319
▁층간소음	-5320
▁카톡으로	-5321
▁콩깍지가	-5322
▁퇴근하고	-5323
▁편하겠죠	-5324
▁필요한게	-5325
▁한달하고	-5326
▁해외여행	-5327
▁헤어지기	-5328
▁헤어지는	-5329
▁헤어짐이	-5330
▁후폭풍은	-5331
▁후회하기	-5332
▁후회해도	-5333
▁힘들었죠	-5334
담해보세요	-5335
었으니까요	-5336
하신가봐요	-5337
▁가능하겠죠	-5338
▁걱정된다고	-5339
▁걸리겠지만	-5340
▁결혼하는데	-5341
▁과정이에요	-5342
▁구해보세요	-5343
▁기원합니다	-5344
▁남았나봐요	-5345
▁남자애한테	-5346
▁남자친구를	-5347
▁대해보세요	-5348
▁두려워하지	-5349
▁들어주세요	-5350
▁맞춰보세요	-5351
▁맡겨보세요	-5352
▁먹어야겠다	-5353
▁미세먼지가	-5354
▁바꿔보세요	-5355
▁사과하세요	-5356
▁삭제하세요	-5357
▁상대방에게	-5358
▁상황이네요	-5359
▁섬유유연제	-5360
▁순간이네요	-5361
▁순간이었을	-5362
▁아름다워요	-5363
▁애매하네요	-5364
▁없을거예요	-5365
▁여자친구를	-5366
▁연락해볼까	-5367
▁연락했는데	-5368
▁연애하는데	-5369
▁외국인인데	-5370
▁이겨내세요	-5371
▁잃어버렸어	-5372
▁잊혀지기도	-5373
▁잘해주세요	-5374
▁좋아한다는	-5375
▁좋아했으면	-5376
▁좋을텐데요	-5377
▁큰일이네요	-5378
▁프라이버시	-5379
▁하고싶었던	-5380
▁힘든가봐요	-5381
이었나봅니다	-5382
▁남자친구에게	-5383
▁당황했겠어요	-5384
▁마음인가봐요	-5385
▁마주쳐보세요	-5386
▁미치겠습니다	-5387
▁어필해보세요	-5388
▁인정해주세요	-5389
▁있으신가봐요	-5390
▁전화해보세요	-5391
▁좋아해줬으면	-5392
▁필요하다면요	-5393
▁부담스러워하지	-5394
,,	-5395
as	-5396
▁'	-5397
▁객	-5398
▁갠	-5399
▁겪	-5400
▁국	-5401
▁굳	-5402
▁굴	-5403
▁꼰	-5404
▁꽉	-5405
▁둔	-5406
▁뒹	-5407
▁뚫	-5408
▁라	-5409
▁렌	-5410
▁맴	-5411
▁맺	-5412
▁멘	-5413
▁몫	-5414
▁민	-5415
▁밉	-5416
▁뱃	-5417
▁벅	-5418
▁뻑	-5419
▁샌	-5420
▁씹	-5421
▁엇	-5422
▁엠	-5423
▁웹	-5424
▁윗	-5425
▁좌	-5426
▁쫄	-5427
▁찢	-5428
▁컸	-5429
▁콕	-5430
▁킁	-5431
▁탁	-5432
▁팍	-5433
▁품	-5434
▁핫	-5435
▁햇	-5436
▁험	-5437
▁훔	-5438
가가	-5439
가기	-5440
가능	-5441
가의	-5442
감당	-5443
강에	-5444
같애	-5445
걸음	-5446
게되	-5447
겠대	-5448
고있	-5449
공원	-5450
구경	-5451
구를	-5452
그만	-5453
극히	-5454
기에	-5455
기지	-5456
긴다	-5457
길만	-5458
꺼야	-5459
꼬박	-5460
네여	-5461
달이	-5462
대는	-5463
독한	-5464
드네	-5465
드위	-5466
듬어	-5467
라네	-5468
라니	-5469
랬다	-5470
런지	-5471
렀어	-5472
력서	-5473
력에	-5474
로그	-5475
르기	-5476
르지	-5477
름이	-5478
리죠	-5479
리필	-5480
린라	-5481
림을	-5482
마요	-5483
마자	-5484
만해	-5485
맛도	-5486
맛이	-5487
맥이	-5488
명한	-5489
문을	-5490
물을	-5491
밖은	-5492
받는	-5493
받을	-5494
발을	-5495
버린	-5496
보네	-5497
부의	-5498
뻑해	-5499
서와	-5500
설여	-5501
소리	-5502
속에	-5503
수업	-5504
스트	-5505
시피	-5506
신발	-5507
쎄요	-5508
아리	-5509
아빠	-5510
안녕	-5511
야해	-5512
양말	-5513
양제	-5514
없네	-5515
에만	-5516
역이	-5517
였네	-5518
영상	-5519
오래	-5520
온다	-5521
올라	-5522
올려	-5523
왔다	-5524
우고	-5525
우지	-5526
운데	-5527
울렛	-5528
은것	-5529
이너	-5530
인줄	-5531
정녀	-5532
져서	-5533
조건	-5534
주일	-5535
지못	-5536
지부	-5537
지우	-5538
질뻔	-5539
질제	-5540
쪄도	-5541
찰텐	-5542
처리	-5543
총회	-5544
촬영	-5545
콜록	-5546
터넷	-5547
테니	-5548
트남	-5549
트롤	-5550
티콘	-5551
프터	-5552
하며	-5553
하진	-5554
학금	-5555
한건	-5556
함에	-5557
해가	-5558
했나	-5559
향을	-5560
헤어	-5561
▁12	-5562
▁AS	-5563
▁as	-5564
▁가게	-5565
▁간대	-5566
▁간직	-5567
▁감동	-5568
▁감출	-5569
▁강요	-5570
▁강제	-5571
▁갖게	-5572
▁같다	-5573
▁같음	-5574
▁개시	-5575
▁객관	-5576
▁갠톡	-5577
▁걔는	-5578
▁걷고	-5579
▁걷길	-5580
▁골프	-5581
▁공유	-5582
▁과연	-5583
▁구두	-5584
▁구별	-5585
▁구워	-5586
▁군인	-5587
▁귀로	-5588
▁그걸	-5589
▁그때	-5590
▁그땐	-5591
▁글자	-5592
▁길면	-5593
▁길지	-5594
▁깎아	-5595
▁꼬박	-5596
▁꼰대	-5597
▁꾹꾹	-5598
▁끈을	-5599
▁끝냈	-5600
▁나나	-5601
▁나니	-5602
▁나야	-5603
▁남과	-5604
▁남들	-5605
▁낮잠	-5606
▁낳을	-5607
▁내면	-5608
▁내서	-5609
▁냉면	-5610
▁너가	-5611
▁너의	-5612
▁넣을	-5613
▁노려	-5614
▁놀까	-5615
▁농구	-5616
▁농담	-5617
▁놔둬	-5618
▁누락	-5619
▁눈높	-5620
▁늙어	-5621
▁다칠	-5622
▁단체	-5623
▁닮은	-5624
▁답은	-5625
▁당첨	-5626
▁당한	-5627
▁대수	-5628
▁대충	-5629
▁대피	-5630
▁데가	-5631
▁독이	-5632
▁돌려	-5633
▁돌면	-5634
▁되짚	-5635
▁두푼	-5636
▁뒤에	-5637
▁뒹굴	-5638
▁드릴	-5639
▁땀을	-5640
▁때매	-5641
▁때요	-5642
▁때죠	-5643
▁떠날	-5644
▁또한	-5645
▁똥차	-5646
▁뜨겁	-5647
▁띄는	-5648
▁롱디	-5649
▁리드	-5650
▁마른	-5651
▁마중	-5652
▁막막	-5653
▁만화	-5654
▁말걸	-5655
▁망함	-5656
▁맞아	-5657
▁먹먹	-5658
▁먹은	-5659
▁멈춰	-5660
▁멋져	-5661
▁목적	-5662
▁몰려	-5663
▁못자	-5664
▁무모	-5665
▁무언	-5666
▁문화	-5667
▁물이	-5668
▁뭐로	-5669
▁뭐지	-5670
▁뭐해	-5671
▁뭘로	-5672
▁미루	-5673
▁미팅	-5674
▁믿고	-5675
▁믿어	-5676
▁믿지	-5677
▁밀려	-5678
▁바꿨	-5679
▁바쁠	-5680
▁반에	-5681
▁반장	-5682
▁반한	-5683
▁발견	-5684
▁밥을	-5685
▁방금	-5686
▁배달	-5687
▁배신	-5688
▁백업	-5689
▁버는	-5690
▁버릇	-5691
▁베프	-5692
▁변신	-5693
▁병신	-5694
▁보란	-5695
▁보신	-5696
▁봐주	-5697
▁봤네	-5698
▁부질	-5699
▁불만	-5700
▁불효	-5701
▁브랜	-5702
▁블록	-5703
▁비워	-5704
▁뿌린	-5705
▁사도	-5706
▁사먹	-5707
▁사수	-5708
▁사전	-5709
▁사줘	-5710
▁사춘	-5711
▁사표	-5712
▁상종	-5713
▁생생	-5714
▁서점	-5715
▁선풍	-5716
▁설득	-5717
▁세어	-5718
▁소름	-5719
▁속박	-5720
▁손편	-5721
▁수건	-5722
▁수능	-5723
▁승진	-5724
▁시려	-5725
▁시선	-5726
▁실천	-5727
▁실패	-5728
▁실행	-5729
▁싸운	-5730
▁싸웠	-5731
▁쌓여	-5732
▁썸도	-5733
▁쓰일	-5734
▁아부	-5735
▁안고	-5736
▁안될	-5737
▁안맞	-5738
▁안부	-5739
▁안할	-5740
▁알까	-5741
▁애의	-5742
▁애인	-5743
▁액정	-5744
▁어흥	-5745
▁없고	-5746
▁엇갈	-5747
▁엠티	-5748
▁여쭤	-5749
▁역할	-5750
▁열어	-5751
▁열흘	-5752
▁영어	-5753
▁예능	-5754
▁예비	-5755
▁예상	-5756
▁예약	-5757
▁오길	-5758
▁오려	-5759
▁오바	-5760
▁오셨	-5761
▁옳은	-5762
▁와인	-5763
▁와플	-5764
▁왠지	-5765
▁외출	-5766
▁욕해	-5767
▁운이	-5768
▁울고	-5769
▁웃는	-5770
▁웃음	-5771
▁원동	-5772
▁원인	-5773
▁원치	-5774
▁월세	-5775
▁웨딩	-5776
▁웹툰	-5777
▁으아	-5778
▁음료	-5779
▁이끌	-5780
▁이왕	-5781
▁인상	-5782
▁인지	-5783
▁일기	-5784
▁일방	-5785
▁일부	-5786
▁일시	-5787
▁읽어	-5788
▁임용	-5789
▁입학	-5790
▁있대	-5791
▁잊기	-5792
▁자장	-5793
▁작동	-5794
▁잘라	-5795
▁잠들	-5796
▁잡념	-5797
▁장갑	-5798
▁적당	-5799
▁전과	-5800
▁전학	-5801
▁절친	-5802
▁정장	-5803
▁정정	-5804
▁제정	-5805
▁조가	-5806
▁졸린	-5807
▁좋긴	-5808
▁좋음	-5809
▁좌절	-5810
▁죄가	-5811
▁주량	-5812
▁주워	-5813
▁즐겨	-5814
▁증거	-5815
▁증명	-5816
▁지각	-5817
▁지낸	-5818
▁지속	-5819
▁지압	-5820
▁지적	-5821
▁지친	-5822
▁직업	-5823
▁직전	-5824
▁질려	-5825
▁질린	-5826
▁질문	-5827
▁짧죠	-5828
▁찍는	-5829
▁찍어	-5830
▁찢어	-5831
▁차인	-5832
▁참다	-5833
▁처리	-5834
▁청결	-5835
▁청춘	-5836
▁최신	-5837
▁최저	-5838
▁축제	-5839
▁춥네	-5840
▁친절	-5841
▁친척	-5842
▁침묵	-5843
▁커서	-5844
▁케익	-5845
▁킁킁	-5846
▁키울	-5847
▁타나	-5848
▁타러	-5849
▁타인	-5850
▁탈모	-5851
▁태연	-5852
▁터지	-5853
▁터질	-5854
▁토닥	-5855
▁톡이	-5856
▁파도	-5857
▁팍팍	-5858
▁패션	-5859
▁포맷	-5860
▁폭식	-5861
▁피로	-5862
▁필기	-5863
▁필수	-5864
▁하러	-5865
▁하아	-5866
▁학벌	-5867
▁한약	-5868
▁한푼	-5869
▁할지	-5870
▁합리	-5871
▁해로	-5872
▁해준	-5873
▁했을	-5874
▁허락	-5875
▁현타	-5876
▁혼수	-5877
▁확률	-5878
▁환기	-5879
▁황당	-5880
▁회의	-5881
▁훔쳐	-5882
▁휴학	-5883
▁흐른	-5884
개월차	-5885
건강에	-5886
겠네여	-5887
기간을	-5888
다는걸	-5889
다는데	-5890
되어야	-5891
드리는	-5892
드위치	-5893
들이랑	-5894
뜨리기	-5895
렵니다	-5896
마다의	-5897
바퀴만	-5898
보려고	-5899
봤는데	-5900
사람은	-5901
센터에	-5902
셨나요	-5903
시키는	-5904
야해요	-5905
어가길	-5906
여행이	-5907
였나요	-5908
왔으면	-5909
이니까	-5910
이었어	-5911
졌어요	-5912
줬더니	-5913
지능에	-5914
칼로리	-5915
하기가	-5916
하기로	-5917
하는건	-5918
하려면	-5919
할까요	-5920
해봐도	-5921
해졌죠	-5922
해줘서	-5923
해지길	-5924
해지네	-5925
했다고	-5926
했다면	-5927
했던거	-5928
했을까	-5929
▁가기로	-5930
▁가끔씩	-5931
▁가네요	-5932
▁가는게	-5933
▁가려고	-5934
▁가볍게	-5935
▁가봐요	-5936
▁가야돼	-5937
▁가족들	-5938
▁각질제	-5939
▁간만에	-5940
▁간절히	-5941
▁갈수록	-5942
▁감각이	-5943
▁감정기	-5944
▁갑니다	-5945
▁거겠지	-5946
▁거라면	-5947
▁건강을	-5948
▁건들지	-5949
▁걸음을	-5950
▁것이죠	-5951
▁겠지만	-5952
▁결과가	-5953
▁결국엔	-5954
▁결혼을	-5955
▁계기가	-5956
▁고시원	-5957
▁고양이	-5958
▁곳까지	-5959
▁곳이죠	-5960
▁관계의	-5961
▁괜찮길	-5962
▁괜찮다	-5963
▁구멍이	-5964
▁귀여울	-5965
▁그것도	-5966
▁그녀도	-5967
▁그런가	-5968
▁그런지	-5969
▁그린라	-5970
▁그만둬	-5971
▁근처로	-5972
▁글쎄요	-5973
▁기르고	-5974
▁기술이	-5975
▁기억에	-5976
▁기억은	-5977
▁기억해	-5978
▁기울여	-5979
▁기준이	-5980
▁깨달음	-5981
▁꼼수를	-5982
▁꽃길만	-5983
▁끊겼어	-5984
▁나가면	-5985
▁나는데	-5986
▁나오네	-5987
▁나올거	-5988
▁나왔네	-5989
▁나이에	-5990
▁나이테	-5991
▁남겨서	-5992
▁남아있	-5993
▁남이니	-5994
▁남자의	-5995
▁낭만이	-5996
▁내일을	-5997
▁내일이	-5998
▁노래는	-5999
▁누구야	-6000
▁다녀도	-6001
▁다르게	-6002
▁다르지	-6003
▁다리가	-6004
▁단맛도	-6005
▁달라요	-6006
▁답답할	-6007
▁답정녀	-6008
▁대기업	-6009
▁대청소	-6010
▁대화의	-6011
▁더워서	-6012
▁도전은	-6013
▁돌리는	-6014
▁돌아서	-6015
▁동영상	-6016
▁되려고	-6017
▁되려면	-6018
▁되어요	-6019
▁되었길	-6020
▁되었네	-6021
▁되었을	-6022
▁된다고	-6023
▁두세요	-6024
▁뒷감당	-6025
▁드려요	-6026
▁들이대	-6027
▁따듯한	-6028
▁따라가	-6029
▁때로는	-6030
▁때부터	-6031
▁떠나간	-6032
▁떨린다	-6033
▁떨어뜨	-6034
▁똑같애	-6035
▁뛰어넘	-6036
▁레시피	-6037
▁마시지	-6038
▁막히는	-6039
▁막힌다	-6040
▁만남은	-6041
▁만났던	-6042
▁만났든	-6043
▁만들기	-6044
▁만지지	-6045
▁많으시	-6046
▁많은가	-6047
▁많은걸	-6048
▁말아야	-6049
▁말해서	-6050
▁말해주	-6051
▁맘처럼	-6052
▁맛있다	-6053
▁맛있어	-6054
▁망설여	-6055
▁맞으면	-6056
▁매력을	-6057
▁먹거나	-6058
▁먹는데	-6059
▁먹어도	-6060
▁먹어야	-6061
▁멈추지	-6062
▁메뉴얼	-6063
▁면도기	-6064
▁면역이	-6065
▁명상을	-6066
▁모습도	-6067
▁모자라	-6068
▁몸에는	-6069
▁무시해	-6070
▁무의식	-6071
▁무조건	-6072
▁문제죠	-6073
▁뭐하나	-6074
▁뭐하면	-6075
▁미래를	-6076
▁미련을	-6077
▁미용실	-6078
▁발전이	-6079
▁방법도	-6080
▁배울까	-6081
▁버리는	-6082
▁버스가	-6083
▁버티고	-6084
▁벅찰텐	-6085
▁베트남	-6086
▁베풀고	-6087
▁변해요	-6088
▁변화도	-6089
▁보기로	-6090
▁보내지	-6091
▁보냈네	-6092
▁보답을	-6093
▁보름달	-6094
▁보일러	-6095
▁부분을	-6096
▁부족해	-6097
▁불안해	-6098
▁불편한	-6099
▁붙잡는	-6100
▁붙잡아	-6101
▁비밀은	-6102
▁비밀을	-6103
▁비세요	-6104
▁비싸요	-6105
▁빠르면	-6106
▁빠지면	-6107
▁뻑뻑해	-6108
▁사과할	-6109
▁사귀어	-6110
▁사람인	-6111
▁사랑니	-6112
▁사이로	-6113
▁산책을	-6114
▁살쪄도	-6115
▁새신발	-6116
▁생각도	-6117
▁생겨서	-6118
▁선택이	-6119
▁설레는	-6120
▁설렘이	-6121
▁성공한	-6122
▁성별을	-6123
▁성적이	-6124
▁소리를	-6125
▁소문이	-6126
▁소소한	-6127
▁소액결	-6128
▁소화가	-6129
▁속시원	-6130
▁속이는	-6131
▁손가락	-6132
▁술마시	-6133
▁술한잔	-6134
▁쉽지가	-6135
▁스키장	-6136
▁시선을	-6137
▁시작할	-6138
▁식습관	-6139
▁싫어요	-6140
▁심심해	-6141
▁싶으면	-6142
▁싸우고	-6143
▁싸웠어	-6144
▁썸녀가	-6145
▁썸타고	-6146
▁쓰려고	-6147
▁쓰면서	-6148
▁쓰이는	-6149
▁아껴뒀	-6150
▁아는거	-6151
▁아니길	-6152
▁아니네	-6153
▁아니지	-6154
▁아쉬운	-6155
▁아울렛	-6156
▁아이디	-6157
▁아프게	-6158
▁아픔도	-6159
▁안받아	-6160
▁안부를	-6161
▁안좋아	-6162
▁안좋은	-6163
▁안타까	-6164
▁않았길	-6165
▁않지요	-6166
▁알겠어	-6167
▁알뜰폰	-6168
▁알바생	-6169
▁알아볼	-6170
▁앞에선	-6171
▁애매한	-6172
▁애틋한	-6173
▁애프터	-6174
▁야경이	-6175
▁어느새	-6176
▁어떡함	-6177
▁어렵다	-6178
▁어리석	-6179
▁어쩌면	-6180
▁어플로	-6181
▁어플을	-6182
▁언니랑	-6183
▁얼굴에	-6184
▁엄마랑	-6185
▁없는지	-6186
▁없지요	-6187
▁여러명	-6188
▁여자로	-6189
▁연락도	-6190
▁연애중	-6191
▁연인과	-6192
▁염색을	-6193
▁영양제	-6194
▁예감은	-6195
▁예민해	-6196
▁예뻐질	-6197
▁예의일	-6198
▁오니까	-6199
▁오디션	-6200
▁오라고	-6201
▁오해가	-6202
▁옷이요	-6203
▁외롭고	-6204
▁욕하고	-6205
▁용기내	-6206
▁우산에	-6207
▁우연이	-6208
▁우정이	-6209
▁운동할	-6210
▁월급날	-6211
▁월급은	-6212
▁위로를	-6213
▁위험한	-6214
▁위험해	-6215
▁유부녀	-6216
▁의심해	-6217
▁이기니	-6218
▁이러는	-6219
▁이력서	-6220
▁이별중	-6221
▁이별할	-6222
▁이사를	-6223
▁이어질	-6224
▁이어폰	-6225
▁이유로	-6226
▁이해를	-6227
▁이해못	-6228
▁인내할	-6229
▁인맥이	-6230
▁인생의	-6231
▁인터넷	-6232
▁일요일	-6233
▁일인지	-6234
▁입냄새	-6235
▁잇몸약	-6236
▁있거나	-6237
▁있겠다	-6238
▁있군요	-6239
▁있냐고	-6240
▁있었어	-6241
▁잊지못	-6242
▁잊혀져	-6243
▁자다가	-6244
▁자신은	-6245
▁자야지	-6246
▁자장면	-6247
▁잘생겼	-6248
▁잘지내	-6249
▁잘하면	-6250
▁잡아도	-6251
▁장학금	-6252
▁재밌을	-6253
▁저녁에	-6254
▁전여자	-6255
▁전하지	-6256
▁접는게	-6257
▁접어야	-6258
▁정리해	-6259
▁정신이	-6260
▁정해져	-6261
▁조심히	-6262
▁조절을	-6263
▁존중해	-6264
▁종교의	-6265
▁좋네요	-6266
▁좋대요	-6267
▁좋아서	-6268
▁좋았던	-6269
▁좋은거	-6270
▁좋을거	-6271
▁주저리	-6272
▁준다면	-6273
▁준비할	-6274
▁즐거울	-6275
▁즐겁게	-6276
▁즐기는	-6277
▁지극히	-6278
▁지금의	-6279
▁지루해	-6280
▁지웠어	-6281
▁지진시	-6282
▁지쳐서	-6283
▁지칠만	-6284
▁진실된	-6285
▁짝녀를	-6286
▁짠하고	-6287
▁찌질한	-6288
▁참았어	-6289
▁채워질	-6290
▁초기화	-6291
▁최고의	-6292
▁최악의	-6293
▁추천해	-6294
▁커플링	-6295
▁커피가	-6296
▁커피는	-6297
▁케이스	-6298
▁콩깍지	-6299
▁키우는	-6300
▁틀리는	-6301
▁파도가	-6302
▁편의점	-6303
▁포기가	-6304
▁풀어야	-6305
▁피하는	-6306
▁피해만	-6307
▁하나죠	-6308
▁하다니	-6309
▁하루는	-6310
▁하지도	-6311
▁한국도	-6312
▁한번더	-6313
▁한번쯤	-6314
▁한심해	-6315
▁할까요	-6316
▁함께도	-6317
▁해결될	-6318
▁해줄까	-6319
▁행동은	-6320
▁허리가	-6321
▁헤아릴	-6322
▁헷갈리	-6323
▁호랑이	-6324
▁호의를	-6325
▁혼자를	-6326
▁화장이	-6327
▁후회만	-6328
▁후회해	-6329
▁휴식도	-6330
▁흐르는	-6331
▁흘러가	-6332
▁희망은	-6333
▁희망이	-6334
▁힘들까	-6335
기만해도	-6336
드시거나	-6337
리겠어요	-6338
받으세요	-6339
보이네요	-6340
사람친구	-6341
성이에요	-6342
시나봐요	-6343
시는구나	-6344
실거예요	-6345
어두세요	-6346
있습니다	-6347
적이네요	-6348
지마세요	-6349
체적으로	-6350
하나봐요	-6351
하셨어요	-6352
해야할지	-6353
해졌어요	-6354
▁가능하죠	-6355
▁가능한가	-6356
▁가리세요	-6357
▁가족한테	-6358
▁간사하죠	-6359
▁감사하는	-6360
▁감으세요	-6361
▁갑작스럽	-6362
▁거짓말은	-6363
▁거짓말을	-6364
▁걱정이야	-6365
▁건강습관	-6366
▁건강하게	-6367
▁견뎌내고	-6368
▁결혼준비	-6369
▁결혼하고	-6370
▁결혼하기	-6371
▁결혼해야	-6372
▁고마움을	-6373
▁고민이죠	-6374
▁공부하면	-6375
▁과식하지	-6376
▁관심사에	-6377
▁괜찮겠지	-6378
▁괜찮을거	-6379
▁교양수업	-6380
▁그렇겠죠	-6381
▁금수저로	-6382
▁기다려도	-6383
▁기다리던	-6384
▁기본으로	-6385
▁기본이죠	-6386
▁깔끔해질	-6387
▁깨닫다니	-6388
▁꼬박꼬박	-6389
▁나겠네요	-6390
▁날이네요	-6391
▁남았네요	-6392
▁남이에요	-6393
▁남자분들	-6394
▁남자에게	-6395
▁남친이랑	-6396
▁낭만적인	-6397
▁너무나도	-6398
▁너무너무	-6399
▁넘어가네	-6400
▁넘었는데	-6401
▁놀이공원	-6402
▁높겠네요	-6403
▁놓으세요	-6404
▁눈높이가	-6405
▁늦었어요	-6406
▁다녀왔어	-6407
▁다릅니다	-6408
▁다하세요	-6409
▁단체생활	-6410
▁단호하게	-6411
▁달라져요	-6412
▁달라지지	-6413
▁당분간은	-6414
▁당신만이	-6415
▁데이트가	-6416
▁동생한테	-6417
▁드립니다	-6418
▁들리려고	-6419
▁들어가서	-6420
▁떨어지는	-6421
▁마셨는데	-6422
▁마음에서	-6423
▁마음이랑	-6424
▁만난다면	-6425
▁만화같은	-6426
▁맡기세요	-6427
▁먹었더니	-6428
▁멀어지면	-6429
▁멈추세요	-6430
▁메모하는	-6431
▁모두에게	-6432
▁모아야할	-6433
▁목표네요	-6434
▁무너져요	-6435
▁무섭나요	-6436
▁무한리필	-6437
▁문제네요	-6438
▁물어봐도	-6439
▁미안하다	-6440
▁바쁜일이	-6441
▁반가워요	-6442
▁받으세요	-6443
▁벗어나는	-6444
▁변화시켜	-6445
▁보내시길	-6446
▁보다보면	-6447
▁보일러가	-6448
▁보험처리	-6449
▁부모님을	-6450
▁분위기를	-6451
▁불공평해	-6452
▁비교하면	-6453
▁비밀연애	-6454
▁비정규직	-6455
▁비행기표	-6456
▁뿌린대로	-6457
▁사람이다	-6458
▁사람이야	-6459
▁사람하고	-6460
▁사랑이죠	-6461
▁사랑인지	-6462
▁사랑할까	-6463
▁사생활이	-6464
▁살아있음	-6465
▁상대방의	-6466
▁샌드위치	-6467
▁생각들을	-6468
▁생각하게	-6469
▁생겼어요	-6470
▁생긴다는	-6471
▁선물하면	-6472
▁선생님께	-6473
▁소유하는	-6474
▁쇼핑하고	-6475
▁수면양말	-6476
▁쉬어가도	-6477
▁스타일이	-6478
▁스테이크	-6479
▁슬퍼하고	-6480
▁습관처럼	-6481
▁시간내서	-6482
▁시기네요	-6483
▁신경쓰고	-6484
▁신경쓰면	-6485
▁신경쓰이	-6486
▁신고하고	-6487
▁심어볼까	-6488
▁심해지는	-6489
▁싶어하는	-6490
▁썸녀한테	-6491
▁쓸데없는	-6492
▁아름답죠	-6493
▁아쉬움이	-6494
▁아침부터	-6495
▁아팠으면	-6496
▁안타깝게	-6497
▁안해먹고	-6498
▁않겠네요	-6499
▁알아보는	-6500
▁어느정도	-6501
▁어둠에서	-6502
▁어떠세요	-6503
▁어떡하죠	-6504
▁어머어머	-6505
▁어찌해야	-6506
▁엄마아빠	-6507
▁없는걸까	-6508
▁없답니다	-6509
▁없어졌어	-6510
▁에너지가	-6511
▁에너지를	-6512
▁여자에게	-6513
▁여친에게	-6514
▁연락왔어	-6515
▁연락할까	-6516
▁연애세포	-6517
▁염탐하지	-6518
▁오래오래	-6519
▁올거예요	-6520
▁왜이렇게	-6521
▁외로움을	-6522
▁용서하고	-6523
▁웃으면서	-6524
▁원동력이	-6525
▁원인이죠	-6526
▁원한다면	-6527
▁유효기간	-6528
▁의식하는	-6529
▁이름이랑	-6530
▁이모티콘	-6531
▁이별하는	-6532
▁이불밖은	-6533
▁이상적인	-6534
▁이어보고	-6535
▁이어주는	-6536
▁이왕이면	-6537
▁이제서야	-6538
▁이해하고	-6539
▁이해하기	-6540
▁익숙해져	-6541
▁인생에서	-6542
▁인지시켜	-6543
▁인테리어	-6544
▁일어나면	-6545
▁일하면서	-6546
▁입으세요	-6547
▁있는걸까	-6548
▁있답니다	-6549
▁있으세요	-6550
▁잊어가는	-6551
▁잊혀질까	-6552
▁잘지내고	-6553
▁잠재력을	-6554
▁재미있어	-6555
▁재밌는거	-6556
▁저마다의	-6557
▁정신없이	-6558
▁존중하고	-6559
▁졸업식에	-6560
▁좋아지고	-6561
▁좋아지는	-6562
▁지금부터	-6563
▁지하철에	-6564
▁집에서도	-6565
▁짜증나네	-6566
▁차였는데	-6567
▁찾아가는	-6568
▁찾아봐요	-6569
▁찾아오는	-6570
▁챙겨주면	-6571
▁챙기세요	-6572
▁취미네요	-6573
▁취직하면	-6574
▁친구들을	-6575
▁친구라면	-6576
▁친구인데	-6577
▁친해지는	-6578
▁컴퓨터가	-6579
▁클럽에서	-6580
▁판단되면	-6581
▁표현하지	-6582
▁피부관리	-6583
▁필요하지	-6584
▁하느냐에	-6585
▁하니까요	-6586
▁하다보니	-6587
▁하셨군요	-6588
▁하지말고	-6589
▁한가지만	-6590
▁한답니다	-6591
▁한바퀴만	-6592
▁함께하고	-6593
▁합리적인	-6594
▁해결되길	-6595
▁해보려고	-6596
▁해봤는데	-6597
▁해야겠지	-6598
▁핸드폰이	-6599
▁헤어짐은	-6600
▁헬스장에	-6601
▁헷갈리네	-6602
▁형편대로	-6603
▁혼자해도	-6604
▁확인하는	-6605
▁후련하네	-6606
▁후련하니	-6607
▁후회하는	-6608
▁후회할까	-6609
▁힘들겠죠	-6610
▁힘들지만	-6611
원해보세요	-6612
조심하세요	-6613
하셨겠어요	-6614
한가봅니다	-6615
▁가능하다고	-6616
▁가족들이랑	-6617
▁간직하세요	-6618
▁갑작스러운	-6619
▁결혼적령기	-6620
▁고민하느라	-6621
▁고백하는게	-6622
▁고백하세요	-6623
▁공부하세요	-6624
▁공부해야지	-6625
▁괜찮아지고	-6626
▁그린라이트	-6627
▁기다리세요	-6628
▁기다릴게요	-6629
▁끝났습니다	-6630
▁나갈거예요	-6631
▁나눠보는게	-6632
▁나쁜거예요	-6633
▁남자입니다	-6634
▁놀랐겠어요	-6635
▁놀랐나봐요	-6636
▁놀러가세요	-6637
▁다가가세요	-6638
▁다행이네요	-6639
▁대단하네요	-6640
▁대피방법을	-6641
▁덜어보세요	-6642
▁데려가세요	-6643
▁도와달라고	-6644
▁동감입니다	-6645
▁두근거림을	-6646
▁드려보세요	-6647
▁들려주세요	-6648
▁들었겠네요	-6649
▁따뜻해졌죠	-6650
▁로봇이에요	-6651
▁만남이네요	-6652
▁만들었어요	-6653
▁망가뜨리기	-6654
▁밀어보세요	-6655
▁바람이라도	-6656
▁받아들여야	-6657
▁벅찰텐대요	-6658
▁병원가세요	-6659
▁보냈습니다	-6660
▁불편하겠죠	-6661
▁비하하지는	-6662
▁사랑스러운	-6663
▁사랑이라는	-6664
▁사랑이에요	-6665
▁사랑하니까	-6666
▁삭제하는게	-6667
▁상관없지만	-6668
▁생각이네요	-6669
▁생각한대로	-6670
▁생각할게요	-6671
▁생각할수록	-6672
▁생겼을지도	-6673
▁선물이네요	-6674
▁선택이었을	-6675
▁성공적으로	-6676
▁세워보세요	-6677
▁소개팅으로	-6678
▁소개팅하고	-6679
▁소중합니다	-6680
▁스타트업에	-6681
▁스트레스를	-6682
▁스트레스야	-6683
▁스트레스의	-6684
▁시간이네요	-6685
▁시켜달라고	-6686
▁아직이라면	-6687
▁알아두세요	-6688
▁알아차려도	-6689
▁알아차리지	-6690
▁애정표현일	-6691
▁없애주세요	-6692
▁없으니까요	-6693
▁여쭤보세요	-6694
▁여행이네요	-6695
▁연락이라도	-6696
▁연락하는게	-6697
▁연락하라고	-6698
▁연락해보는	-6699
▁연락해봐요	-6700
▁오늘이에요	-6701
▁운동하세요	-6702
▁움직이세요	-6703
▁위해서예요	-6704
▁응원할게요	-6705
▁이야기하고	-6706
▁이야기하는	-6707
▁이어나가는	-6708
▁인공지능에	-6709
▁일어나세요	-6710
▁있었을지도	-6711
▁자체만으로	-6712
▁잘못입니다	-6713
▁잡아보세요	-6714
▁재밌겠어요	-6715
▁점심시간에	-6716
▁정리하세요	-6717
▁정신건강에	-6718
▁정정기간을	-6719
▁제자리걸음	-6720
▁조급해지면	-6721
▁졸업하는데	-6722
▁좋으시네요	-6723
▁주의하세요	-6724
▁준비하기는	-6725
▁준비하느라	-6726
▁지저분해요	-6727
▁직접적으로	-6728
▁질러보세요	-6729
▁청소하세요	-6730
▁치료하세요	-6731
▁친구들한테	-6732
▁친해지는게	-6733
▁칭찬이네요	-6734
▁칭찬해주고	-6735
▁포장하는게	-6736
▁표현해보는	-6737
▁하루하루가	-6738
▁하우스웨딩	-6739
▁해드릴게요	-6740
▁해야겠네여	-6741
▁행복하세요	-6742
▁행복해보여	-6743
▁호랑이보다	-6744
▁확실해지면	-6745
▁흘려보세요	-6746
▁힘드니까요	-6747
▁간절하겠네요	-6748
▁개시해보세요	-6749
▁걱정되겠어요	-6750
▁결정했나봐요	-6751
▁극복해보세요	-6752
▁낳을뿐이에요	-6753
▁넓으신가봐요	-6754
▁놔둬야하는데	-6755
▁대단하시군요	-6756
▁되짚어보세요	-6757
▁많았나봅니다	-6758
▁부딪혔나봐요	-6759
▁부탁드립니다	-6760
▁분담해보세요	-6761
▁사랑하는지는	-6762
▁삭제해보세요	-6763
▁아껴뒀나봐요	-6764
▁연락두절돼서	-6765
▁운동해보세요	-6766
▁위로해드리는	-6767
▁이해해보세요	-6768
▁재미있나봐요	-6769
▁절약되겠네요	-6770
▁정신차리세요	-6771
▁존중해주세요	-6772
▁챙겨드시거나	-6773
▁축하해주세요	-6774
▁포맷해보세요	-6775
▁피곤했나봐요	-6776
▁필요해보여요	-6777
▁확인해달라고	-6778
▁힘드시겠어요	-6779
▁걱정하지마세요	-6780
▁결정이었을거라	-6781
▁말씀드려보세요	-6782
▁부담스러워할까	-6783
▁적응해야겠네요	-6784
▁좋아하시는구나	-6785
▁프로포즈해보세요	-6786
;;	-6787
▁0	-6788
▁갱	-6789
▁겉	-6790
▁곤	-6791
▁깍	-6792
▁깰	-6793
▁꽝	-6794
▁꿔	-6795
▁꿰	-6796
▁낸	-6797
▁넋	-6798
▁뇌	-6799
▁껴	-6800
▁눌	-6801
▁눕	-6802
▁덥	-6803
▁돋	-6804
▁돕	-6805
▁뒀	-6806
▁떴	-6807
▁떼	-6808
▁뜬	-6809
▁묘	-6810
▁박	-6811
▁벤	-6812
▁볶	-6813
▁빛	-6814
▁뻐	-6815
▁뽀	-6816
▁숫	-6817
▁쌍	-6818
▁앱	-6819
▁얽	-6820
▁엊	-6821
▁엿	-6822
▁욜	-6823
▁워	-6824
▁잼	-6825
▁젤	-6826
▁쥐	-6827
▁짰	-6828
▁쪄	-6829
▁쭉	-6830
▁춘	-6831
▁캬	-6832
▁턱	-6833
▁텀	-6834
▁텅	-6835
▁퇴	-6836
▁틈	-6837
▁팁	-6838
▁팩	-6839
▁펴	-6840
▁헐	-6841
▁헥	-6842
▁헹	-6843
▁홈	-6844
▁홧	-6845
▁흠	-6846
▁히	-6847
가서	-6848
가에	-6849
가한	-6850
간대	-6851
간질	-6852
갔다	-6853
거든	-6854
걸이	-6855
겁한	-6856
게해	-6857
경이	-6858
계절	-6859
고의	-6860
과류	-6861
구로	-6862
그램	-6863
그런	-6864
극이	-6865
근한	-6866
근해	-6867
긋지	-6868
긋한	-6869
기다	-6870
기사	-6871
기한	-6872
길래	-6873
꺼풀	-6874
꼈어	-6875
꾸던	-6876
꾸로	-6877
났을	-6878
낭비	-6879
내길	-6880
너덜	-6881
년만	-6882
년반	-6883
년사	-6884
년전	-6885
놓지	-6886
는다	-6887
니깐	-6888
님들	-6889
다운	-6890
닥을	-6891
달래	-6892
답이	-6893
더군	-6894
도라	-6895
독여	-6896
동거	-6897
동물	-6898
동차	-6899
됐네	-6900
된다	-6901
됬네	-6902
두리	-6903
들의	-6904
따로	-6905
때문	-6906
땜에	-6907
떨떨	-6908
란다	-6909
량의	-6910
려는	-6911
렸다	-6912
로라	-6913
로션	-6914
로잡	-6915
르몬	-6916
른다	-6917
릴있	-6918
마디	-6919
만남	-6920
망이	-6921
먹을	-6922
문득	-6923
물주	-6924
미고	-6925
바구	-6926
받은	-6927
발이	-6928
방비	-6929
버림	-6930
번을	-6931
번의	-6932
베리	-6933
보낼	-6934
보려	-6935
볶이	-6936
봐야	-6937
부르	-6938
부한	-6939
불러	-6940
뿐이	-6941
사이	-6942
사자	-6943
사진	-6944
상일	-6945
샜어	-6946
서요	-6947
서히	-6948
선배	-6949
설계	-6950
섭섭	-6951
성에	-6952
성을	-6953
셨어	-6954
소짓	-6955
수건	-6956
스레	-6957
시도	-6958
시방	-6959
시에	-6960
시지	-6961
신가	-6962
신고	-6963
신청	-6964
실에	-6965
실을	-6966
싶네	-6967
싸움	-6968
썸남	-6969
아파	-6970
안나	-6971
안할	-6972
액션	-6973
약이	-6974
었나	-6975
었는	-6976
었지	-6977
여도	-6978
여서	-6979
여주	-6980
연이	-6981
오게	-6982
오늘	-6983
오지	-6984
올까	-6985
와도	-6986
욕탕	-6987
용품	-6988
워시	-6989
워야	-6990
웠던	-6991
은지	-6992
의별	-6993
의의	-6994
이상	-6995
이진	-6996
이집	-6997
인공	-6998
일도	-6999
일은	-7000
임금	-7001
임말	-7002
잊혀	-7003
자가	-7004
잔치	-7005
쟁이	-7006
저히	-7007
적일	-7008
점이	-7009
좋아	-7010
주에	-7011
주의	-7012
주인	-7013
준대	-7014
줘도	-7015
줘서	-7016
즈를	-7017
지질	-7018
직이	-7019
질때	-7020
짼데	-7021
차게	-7022
찰랑	-7023
채기	-7024
천번	-7025
체가	-7026
쳐서	-7027
쳤다	-7028
초가	-7029
초에	-7030
치료	-7031
커플	-7032
코인	-7033
키기	-7034
타는	-7035
탈까	-7036
탈이	-7037
탔어	-7038
통이	-7039
통제	-7040
트로	-7041
트를	-7042
편이	-7043
평가	-7044
폭발	-7045
피해	-7046
학원	-7047
한대	-7048
한듯	-7049
할래	-7050
할수	-7051
혔어	-7052
활용	-7053
효도	-7054
휴일	-7055
히나	-7056
!!!	-7057
...	-7058
???	-7059
▁11	-7060
▁가본	-7061
▁가시	-7062
▁가입	-7063
▁가자	-7064
▁간섭	-7065
▁간질	-7066
▁갈궈	-7067
▁갈등	-7068
▁갔나	-7069
▁거도	-7070
▁거둬	-7071
▁거에	-7072
▁거였	-7073
▁건데	-7074
▁걸요	-7075
▁겁나	-7076
▁것에	-7077
▁것일	-7078
▁겠지	-7079
▁격식	-7080
▁견적	-7081
▁계산	-7082
▁계약	-7083
▁고집	-7084
▁곤두	-7085
▁골랐	-7086
▁공간	-7087
▁공복	-7088
▁공황	-7089
▁관찰	-7090
▁구매	-7091
▁구박	-7092
▁굳이	-7093
▁그나	-7094
▁그도	-7095
▁그림	-7096
▁그의	-7097
▁그지	-7098
▁그쪽	-7099
▁근교	-7100
▁근데	-7101
▁기네	-7102
▁기름	-7103
▁기쁨	-7104
▁기침	-7105
▁길을	-7106
▁김에	-7107
▁까아	-7108
▁깨진	-7109
▁깨짐	-7110
▁꾸죠	-7111
▁끊기	-7112
▁끊는	-7113
▁끊어	-7114
▁끌지	-7115
▁끝의	-7116
▁나게	-7117
▁나란	-7118
▁나빴	-7119
▁난감	-7120
▁날짜	-7121
▁남녀	-7122
▁낮술	-7123
▁내딛	-7124
▁내맘	-7125
▁너덜	-7126
▁너랑	-7127
▁넘게	-7128
▁넘넘	-7129
▁넘은	-7130
▁노잼	-7131
▁놀자	-7132
▁놓는	-7133
▁놓지	-7134
▁누워	-7135
▁느꼈	-7136
▁늘어	-7137
▁다듬	-7138
▁답을	-7139
▁대상	-7140
▁대쉬	-7141
▁덥다	-7142
▁데도	-7143
▁데서	-7144
▁돕는	-7145
▁돼서	-7146
▁돼지	-7147
▁되게	-7148
▁될지	-7149
▁두렵	-7150
▁둘다	-7151
▁드려	-7152
▁듣는	-7153
▁들게	-7154
▁듯한	-7155
▁따끔	-7156
▁따져	-7157
▁딱히	-7158
▁딴짓	-7159
▁때인	-7160
▁떨고	-7161
▁뜨끈	-7162
▁뜨는	-7163
▁라는	-7164
▁마라	-7165
▁만한	-7166
▁말과	-7167
▁말만	-7168
▁말자	-7169
▁망상	-7170
▁망한	-7171
▁맞게	-7172
▁맞을	-7173
▁맞이	-7174
▁맞출	-7175
▁매몰	-7176
▁매운	-7177
▁매정	-7178
▁먹기	-7179
▁먹나	-7180
▁멈출	-7181
▁멋질	-7182
▁메리	-7183
▁모여	-7184
▁몸과	-7185
▁몸살	-7186
▁못난	-7187
▁못생	-7188
▁무지	-7189
▁미운	-7190
▁믿는	-7191
▁믿음	-7192
▁밑바	-7193
▁바란	-7194
▁바래	-7195
▁반영	-7196
▁받네	-7197
▁받았	-7198
▁받음	-7199
▁발라	-7200
▁발이	-7201
▁밤만	-7202
▁밤새	-7203
▁밥은	-7204
▁배가	-7205
▁배정	-7206
▁백수	-7207
▁뱃살	-7208
▁버림	-7209
▁번만	-7210
▁벌레	-7211
▁벌면	-7212
▁법을	-7213
▁벗겨	-7214
▁벗어	-7215
▁벤츠	-7216
▁병행	-7217
▁보수	-7218
▁보약	-7219
▁보임	-7220
▁보자	-7221
▁부케	-7222
▁부팅	-7223
▁분양	-7224
▁불순	-7225
▁불쑥	-7226
▁블랙	-7227
▁비만	-7228
▁비쌈	-7229
▁비오	-7230
▁비와	-7231
▁비용	-7232
▁비친	-7233
▁비트	-7234
▁비해	-7235
▁비혼	-7236
▁빌어	-7237
▁빼앗	-7238
▁사무	-7239
▁살려	-7240
▁살죠	-7241
▁삶에	-7242
▁삶은	-7243
▁샀다	-7244
▁서울	-7245
▁서핑	-7246
▁선배	-7247
▁설계	-7248
▁설렐	-7249
▁설마	-7250
▁세달	-7251
▁세탁	-7252
▁속아	-7253
▁속지	-7254
▁수십	-7255
▁수제	-7256
▁숙제	-7257
▁숙취	-7258
▁숫자	-7259
▁쉬다	-7260
▁스노	-7261
▁스쳐	-7262
▁스케	-7263
▁슬플	-7264
▁시급	-7265
▁식사	-7266
▁식욕	-7267
▁식은	-7268
▁식혀	-7269
▁실용	-7270
▁심난	-7271
▁심남	-7272
▁심쿵	-7273
▁싸울	-7274
▁쌓인	-7275
▁쏟아	-7276
▁쓰게	-7277
▁쓰면	-7278
▁쓰이	-7279
▁씨씨	-7280
▁아끼	-7281
▁아날	-7282
▁아냐	-7283
▁아놔	-7284
▁아래	-7285
▁아려	-7286
▁안풀	-7287
▁안한	-7288
▁않기	-7289
▁않으	-7290
▁알긴	-7291
▁애완	-7292
▁야구	-7293
▁야식	-7294
▁약점	-7295
▁양을	-7296
▁양치	-7297
▁얘는	-7298
▁어딘	-7299
▁어언	-7300
▁어째	-7301
▁억울	-7302
▁없앨	-7303
▁에이	-7304
▁엮여	-7305
▁연상	-7306
▁연하	-7307
▁열받	-7308
▁영통	-7309
▁예고	-7310
▁예쁠	-7311
▁예정	-7312
▁예측	-7313
▁오죠	-7314
▁옥상	-7315
▁올게	-7316
▁옷은	-7317
▁와요	-7318
▁왜케	-7319
▁요청	-7320
▁욕을	-7321
▁욜로	-7322
▁용량	-7323
▁우습	-7324
▁웃게	-7325
▁웃고	-7326
▁원해	-7327
▁위축	-7328
▁유료	-7329
▁유통	-7330
▁으으	-7331
▁의존	-7332
▁이래	-7333
▁일과	-7334
▁일인	-7335
▁있던	-7336
▁잊자	-7337
▁자다	-7338
▁자요	-7339
▁자제	-7340
▁잘됐	-7341
▁잘한	-7342
▁잠식	-7343
▁장점	-7344
▁저기	-7345
▁저만	-7346
▁저음	-7347
▁저장	-7348
▁저주	-7349
▁저편	-7350
▁적은	-7351
▁적을	-7352
▁전할	-7353
▁절망	-7354
▁접은	-7355
▁접촉	-7356
▁정열	-7357
▁정이	-7358
▁젖은	-7359
▁제습	-7360
▁조별	-7361
▁졸라	-7362
▁종종	-7363
▁종지	-7364
▁좋네	-7365
▁주길	-7366
▁줄도	-7367
▁줄일	-7368
▁중문	-7369
▁줘야	-7370
▁즐길	-7371
▁지날	-7372
▁지수	-7373
▁지지	-7374
▁직후	-7375
▁질긴	-7376
▁쪼금	-7377
▁찔려	-7378
▁찬물	-7379
▁찼어	-7380
▁찾은	-7381
▁천국	-7382
▁초라	-7383
▁총회	-7384
▁추가	-7385
▁춥고	-7386
▁충실	-7387
▁취소	-7388
▁치마	-7389
▁친군	-7390
▁카공	-7391
▁크기	-7392
▁타면	-7393
▁탄다	-7394
▁태그	-7395
▁톡을	-7396
▁통장	-7397
▁투잡	-7398
▁페메	-7399
▁편린	-7400
▁편해	-7401
▁평범	-7402
▁표출	-7403
▁풀고	-7404
▁풀리	-7405
▁하객	-7406
▁하니	-7407
▁하필	-7408
▁학기	-7409
▁한결	-7410
▁한눈	-7411
▁한데	-7412
▁할게	-7413
▁할말	-7414
▁할인	-7415
▁핫한	-7416
▁해가	-7417
▁했네	-7418
▁허기	-7419
▁헌신	-7420
▁헛된	-7421
▁헥헥	-7422
▁현관	-7423
▁혼나	-7424
▁혼내	-7425
▁혼밥	-7426
▁혼인	-7427
▁화나	-7428
▁화난	-7429
▁화학	-7430
▁화해	-7431
▁효도	-7432
▁훈훈	-7433
▁휘둘	-7434
▁흐려	-7435
▁히스	-7436
▁힘겨	-7437
▁힘은	-7438
가기도	-7439
가보다	-7440
갔네요	-7441
같네요	-7442
겁니다	-7443
게되네	-7444
그리고	-7445
기간이	-7446
기한이	-7447
나가는	-7448
난다고	-7449
난다면	-7450
날인데	-7451
년간의	-7452
년동안	-7453
년인데	-7454
년하고	-7455
는다고	-7456
는다는	-7457
는데는	-7458
는지도	-7459
다는것	-7460
다는게	-7461
다니는	-7462
달라는	-7463
당하는	-7464
당했어	-7465
도라의	-7466
독하고	-7467
드리러	-7468
때문에	-7469
라고는	-7470
렸으면	-7471
만나고	-7472
망이지	-7473
방법이	-7474
버리네	-7475
보려구	-7476
보셔요	-7477
보이나	-7478
빛으로	-7479
사진을	-7480
생각이	-7481
소짓게	-7482
속에서	-7483
스러웠	-7484
스럽네	-7485
스타일	-7486
시나요	-7487
싶네요	-7488
았다고	-7489
았더니	-7490
았어요	-7491
야겠어	-7492
야겠지	-7493
어진다	-7494
없어요	-7495
었다면	-7496
었을까	-7497
었지만	-7498
였는지	-7499
였을까	-7500
오는날	-7501
옵니다	-7502
왔네요	-7503
으라고	-7504
을때는	-7505
이나마	-7506
이면서	-7507
이야기	-7508
이지요	-7509
인거죠	-7510
인트가	-7511
있어요	-7512
있을까	-7513
자마자	-7514
적이면	-7515
지나봐	-7516
지부지	-7517
질까봐	-7518
플라워	-7519
하겠어	-7520
하다니	-7521
한거니	-7522
한다고	-7523
해보는	-7524
해져도	-7525
해지고	-7526
했나요	-7527
했다는	-7528
▁100	-7529
▁가거나	-7530
▁가라앉	-7531
▁가량의	-7532
▁가리는	-7533
▁가스비	-7534
▁가슴은	-7535
▁가치가	-7536
▁간절한	-7537
▁감정도	-7538
▁갔는지	-7539
▁갖자는	-7540
▁같다면	-7541
▁같으면	-7542
▁개인의	-7543
▁거꾸로	-7544
▁거라도	-7545
▁거리가	-7546
▁걱정을	-7547
▁건강한	-7548
▁걸렸어	-7549
▁걸었어	-7550
▁것이든	-7551
▁것일까	-7552
▁견과류	-7553
▁견디기	-7554
▁결국은	-7555
▁결혼에	-7556
▁결혼하	-7557
▁경쟁이	-7558
▁고독한	-7559
▁고르는	-7560
▁고민을	-7561
▁고백이	-7562
▁고백한	-7563
▁고치기	-7564
▁공감이	-7565
▁공부를	-7566
▁공휴일	-7567
▁관계는	-7568
▁관계도	-7569
▁관계에	-7570
▁관심있	-7571
▁괜찮지	-7572
▁괴롭다	-7573
▁구남친	-7574
▁구썸남	-7575
▁귀여운	-7576
▁귀엽죠	-7577
▁귀찮다	-7578
▁귀찮은	-7579
▁그것이	-7580
▁그대의	-7581
▁그러지	-7582
▁그런거	-7583
▁그만두	-7584
▁그분도	-7585
▁그분에	-7586
▁그에게	-7587
▁기대는	-7588
▁기억될	-7589
▁기억만	-7590
▁기운이	-7591
▁길거리	-7592
▁깨끗이	-7593
▁깨졌어	-7594
▁꿈에나	-7595
▁끊는게	-7596
▁끊어야	-7597
▁끝나도	-7598
▁끝나면	-7599
▁끝내는	-7600
▁끝인거	-7601
▁끝일줄	-7602
▁나가는	-7603
▁나가지	-7604
▁나갈까	-7605
▁나니까	-7606
▁나들이	-7607
▁나쁜놈	-7608
▁나약한	-7609
▁나오고	-7610
▁나온다	-7611
▁나이들	-7612
▁나타나	-7613
▁날씨도	-7614
▁남기고	-7615
▁남기는	-7616
▁남는게	-7617
▁났나봐	-7618
▁내리지	-7619
▁내버려	-7620
▁넋두리	-7621
▁노래가	-7622
▁노후는	-7623
▁놓아줄	-7624
▁놓치고	-7625
▁놓치지	-7626
▁누구냐	-7627
▁누우면	-7628
▁눈꺼풀	-7629
▁느껴지	-7630
▁다갔어	-7631
▁다니는	-7632
▁다닐까	-7633
▁다독여	-7634
▁다른데	-7635
▁다시는	-7636
▁다양한	-7637
▁다정한	-7638
▁단순한	-7639
▁단톡방	-7640
▁달달할	-7641
▁달라질	-7642
▁담배를	-7643
▁답장을	-7644
▁당당히	-7645
▁당사자	-7646
▁당신만	-7647
▁대단한	-7648
▁대하는	-7649
▁대학원	-7650
▁더이상	-7651
▁데리러	-7652
▁도와드	-7653
▁도저히	-7654
▁도전이	-7655
▁독하게	-7656
▁돌아갈	-7657
▁돌아와	-7658
▁동생이	-7659
▁되겠죠	-7660
▁되네요	-7661
▁되시길	-7662
▁된다면	-7663
▁두려운	-7664
▁뒤돌아	-7665
▁뒷통수	-7666
▁드레스	-7667
▁든든할	-7668
▁들어맞	-7669
▁들어요	-7670
▁들으며	-7671
▁들텐데	-7672
▁딱이죠	-7673
▁때리기	-7674
▁때마다	-7675
▁땡긴다	-7676
▁떡볶이	-7677
▁떨려서	-7678
▁떨어짐	-7679
▁똑같이	-7680
▁똑똑해	-7681
▁리액션	-7682
▁마셔요	-7683
▁마시기	-7684
▁마음껏	-7685
▁마주쳤	-7686
▁만나실	-7687
▁만났을	-7688
▁만들면	-7689
▁만들죠	-7690
▁많겠지	-7691
▁많지만	-7692
▁말이죠	-7693
▁말투는	-7694
▁말하면	-7695
▁말할까	-7696
▁맘같지	-7697
▁맛난거	-7698
▁머리로	-7699
▁먹기로	-7700
▁먹으러	-7701
▁멘탈이	-7702
▁면접만	-7703
▁모두를	-7704
▁모으는	-7705
▁모처럼	-7706
▁목걸이	-7707
▁목욕탕	-7708
▁몰라서	-7709
▁몰랐어	-7710
▁몸에서	-7711
▁못할까	-7712
▁무거운	-7713
▁무너진	-7714
▁무뎌질	-7715
▁무릎에	-7716
▁무모한	-7717
▁무섭네	-7718
▁무섭다	-7719
▁문제에	-7720
▁묻어두	-7721
▁물가가	-7722
▁물질이	-7723
▁뭐하냐	-7724
▁뭘까요	-7725
▁뭘하면	-7726
▁미련만	-7727
▁미련한	-7728
▁믿기지	-7729
▁바꾸는	-7730
▁바꿔야	-7731
▁바꿨어	-7732
▁바뀌어	-7733
▁바나나	-7734
▁바람둥	-7735
▁바람피	-7736
▁반대로	-7737
▁반에서	-7738
▁받았던	-7739
▁방법은	-7740
▁방식이	-7741
▁방학에	-7742
▁방학은	-7743
▁방해가	-7744
▁배불러	-7745
▁배워도	-7746
▁배터리	-7747
▁베란다	-7748
▁변덕이	-7749
▁변하고	-7750
▁별로임	-7751
▁별의별	-7752
▁보고만	-7753
▁보고파	-7754
▁보는건	-7755
▁보는데	-7756
▁보니까	-7757
▁보듬어	-7758
▁보시면	-7759
▁보이네	-7760
▁보인다	-7761
▁복잡할	-7762
▁본인이	-7763
▁볼때는	-7764
▁봐봐요	-7765
▁부리면	-7766
▁분명히	-7767
▁분에게	-7768
▁불가능	-7769
▁비겁한	-7770
▁비정상	-7771
▁빈자리	-7772
▁빌릴까	-7773
▁빠르게	-7774
▁빠져나	-7775
▁사겼어	-7776
▁사계절	-7777
▁사귀긴	-7778
▁사귀다	-7779
▁사라진	-7780
▁사람일	-7781
▁사랑만	-7782
▁사로잡	-7783
▁사실에	-7784
▁살거야	-7785
▁살아서	-7786
▁살아온	-7787
▁샀는데	-7788
▁상대는	-7789
▁상대에	-7790
▁상사병	-7791
▁상자를	-7792
▁상태인	-7793
▁상황에	-7794
▁상황일	-7795
▁색다른	-7796
▁생각지	-7797
▁생기길	-7798
▁서서히	-7799
▁선물해	-7800
▁선의의	-7801
▁선택의	-7802
▁설레고	-7803
▁성격도	-7804
▁성장을	-7805
▁세월이	-7806
▁소름돋	-7807
▁소모가	-7808
▁소비를	-7809
▁손수건	-7810
▁손으로	-7811
▁쇼핑몰	-7812
▁수천번	-7813
▁쉬면서	-7814
▁스릴있	-7815
▁슬프다	-7816
▁시간과	-7817
▁시작은	-7818
▁시작을	-7819
▁식었어	-7820
▁싫은데	-7821
▁싶다면	-7822
▁싶은게	-7823
▁싶지만	-7824
▁썸녀랑	-7825
▁썸으로	-7826
▁썸일까	-7827
▁씁니다	-7828
▁아니니	-7829
▁아니다	-7830
▁아무는	-7831
▁아무런	-7832
▁아이고	-7833
▁아파요	-7834
▁아프기	-7835
▁안되나	-7836
▁안보여	-7837
▁안오지	-7838
▁안하면	-7839
▁안해줘	-7840
▁않았을	-7841
▁알게되	-7842
▁알려면	-7843
▁알아가	-7844
▁알아야	-7845
▁애교가	-7846
▁약간의	-7847
▁얘기해	-7848
▁어디가	-7849
▁어렵지	-7850
▁어색한	-7851
▁어색해	-7852
▁얼떨떨	-7853
▁없다는	-7854
▁없대요	-7855
▁여기서	-7856
▁여지를	-7857
▁여행지	-7858
▁역시나	-7859
▁연습해	-7860
▁연애도	-7861
▁연애인	-7862
▁연인이	-7863
▁열까지	-7864
▁영원히	-7865
▁영향을	-7866
▁영화가	-7867
▁영화를	-7868
▁예쁘다	-7869
▁예쁜데	-7870
▁예의를	-7871
▁오늘로	-7872
▁오래갈	-7873
▁오르네	-7874
▁오지랖	-7875
▁온다고	-7876
▁올랐어	-7877
▁와닿지	-7878
▁왜이리	-7879
▁외국어	-7880
▁외로움	-7881
▁우산을	-7882
▁우울증	-7883
▁우울한	-7884
▁운동은	-7885
▁운동화	-7886
▁울적한	-7887
▁울적해	-7888
▁웃는게	-7889
▁웃으면	-7890
▁원망은	-7891
▁원하지	-7892
▁월급을	-7893
▁유학을	-7894
▁의도는	-7895
▁의심이	-7896
▁이김에	-7897
▁이대로	-7898
▁이러다	-7899
▁이러면	-7900
▁이럴까	-7901
▁이번달	-7902
▁이번엔	-7903
▁이별하	-7904
▁이사람	-7905
▁이상의	-7906
▁이어가	-7907
▁이해는	-7908
▁이혼을	-7909
▁인고의	-7910
▁인연에	-7911
▁일부로	-7912
▁입니다	-7913
▁입을까	-7914
▁입장을	-7915
▁있도록	-7916
▁있었던	-7917
▁있음을	-7918
▁잊기가	-7919
▁잊는게	-7920
▁잊혀진	-7921
▁자극이	-7922
▁자동차	-7923
▁자리가	-7924
▁자유를	-7925
▁자존심	-7926
▁자체를	-7927
▁작아지	-7928
▁잔소리	-7929
▁잘되고	-7930
▁잘못은	-7931
▁잘생겨	-7932
▁잘자요	-7933
▁잘하게	-7934
▁잘하니	-7935
▁잘할까	-7936
▁잡념을	-7937
▁잡았어	-7938
▁장점을	-7939
▁재미없	-7940
▁재설계	-7941
▁재채기	-7942
▁적어도	-7943
▁적응이	-7944
▁전기가	-7945
▁전까지	-7946
▁전부는	-7947
▁전에는	-7948
▁전으로	-7949
▁전학가	-7950
▁전화는	-7951
▁정답을	-7952
▁정답이	-7953
▁정도에	-7954
▁정리되	-7955
▁정리에	-7956
▁정성이	-7957
▁정신과	-7958
▁정신병	-7959
▁정신적	-7960
▁정하고	-7961
▁정확히	-7962
▁조급해	-7963
▁조언이	-7964
▁조용히	-7965
▁종교를	-7966
▁좋다고	-7967
▁좋더라	-7968
▁좋아져	-7969
▁좋아진	-7970
▁좋으니	-7971
▁좋은지	-7972
▁주려고	-7973
▁주름살	-7974
▁주변의	-7975
▁주인공	-7976
▁죽겠다	-7977
▁죽겠어	-7978
▁죽어도	-7979
▁죽을거	-7980
▁줄임말	-7981
▁중간에	-7982
▁중고로	-7983
▁줬으면	-7984
▁지긋지	-7985
▁지나고	-7986
▁지내요	-7987
▁지워질	-7988
▁지쳐요	-7989
▁지쳤어	-7990
▁지치네	-7991
▁직장인	-7992
▁진급할	-7993
▁진통제	-7994
▁질투가	-7995
▁질투를	-7996
▁집까지	-7997
▁짜증남	-7998
▁짝남과	-7999
▁짝남은	-8000
▁짝녀와	-8001
▁찍었네	-8002
▁차단도	-8003
▁차별이	-8004
▁차이인	-8005
▁착각이	-8006
▁참겠어	-8007
▁참아야	-8008
▁창피해	-8009
▁책임질	-8010
▁처음엔	-8011
▁처음이	-8012
▁첫이별	-8013
▁청소는	-8014
▁청소를	-8015
▁축복과	-8016
▁축하해	-8017
▁취직할	-8018
▁취해서	-8019
▁친척들	-8020
▁카톡할	-8021
▁컴터가	-8022
▁클럽을	-8023
▁탓하지	-8024
▁티나나	-8025
▁페북을	-8026
▁포근한	-8027
▁풀렸길	-8028
▁피시방	-8029
▁피하고	-8030
▁필요가	-8031
▁필요도	-8032
▁하겠죠	-8033
▁하기로	-8034
▁하는거	-8035
▁하늘이	-8036
▁하라는	-8037
▁하려면	-8038
▁하루일	-8039
▁하시고	-8040
▁하지마	-8041
▁하지요	-8042
▁학교에	-8043
▁한달반	-8044
▁한달째	-8045
▁한번만	-8046
▁한순간	-8047
▁한없이	-8048
▁한켠에	-8049
▁할게요	-8050
▁할수록	-8051
▁함께면	-8052
▁해내고	-8053
▁해주면	-8054
▁했나봐	-8055
▁했네요	-8056
▁했는지	-8057
▁했더니	-8058
▁행동할	-8059
▁행복이	-8060
▁향수가	-8061
▁허상일	-8062
▁허전할	-8063
▁헷갈려	-8064
▁호르몬	-8065
▁확률이	-8066
▁후배가	-8067
▁후회없	-8068
▁휴유증	-8069
▁흑역사	-8070
▁흔적이	-8071
▁흘러갈	-8072
▁힘내요	-8073
▁힘들면	-8074
남자친구	-8075
년이라는	-8076
더라구요	-8077
르니까요	-8078
만으로도	-8079
받으면서	-8080
보는것도	-8081
사람에게	-8082
이라면요	-8083
이었네요	-8084
이었는데	-8085
적이에요	-8086
중입니다	-8087
질뻔했어	-8088
하겠지만	-8089
하면서도	-8090
한다는데	-8091
해야하나	-8092
▁가고싶다	-8093
▁가까워질	-8094
▁가나봐요	-8095
▁가늠하지	-8096
▁가벼워질	-8097
▁가져가면	-8098
▁가져왔다	-8099
▁가족들과	-8100
▁가치관에	-8101
▁간단하게	-8102
▁간질간질	-8103
▁감성적이	-8104
▁거니까요	-8105
▁거두세요	-8106
▁거짓말이	-8107
▁걱정하면	-8108
▁건가봐요	-8109
▁겨울에는	-8110
▁견뎌봐요	-8111
▁결정하기	-8112
▁결정하는	-8113
▁결혼이나	-8114
▁결혼한지	-8115
▁계산적인	-8116
▁고마워요	-8117
▁고맙다고	-8118
▁고백해야	-8119
▁고백했다	-8120
▁공부하는	-8121
▁공부하러	-8122
▁공부할까	-8123
▁괜찮아지	-8124
▁궁금증을	-8125
▁궁금하면	-8126
▁궁금한게	-8127
▁그것만큼	-8128
▁그러니까	-8129
▁그럴까요	-8130
▁그럴수도	-8131
▁그리움을	-8132
▁그리움이	-8133
▁그분에게	-8134
▁그사람이	-8135
▁기다려야	-8136
▁기다리게	-8137
▁기대치가	-8138
▁길러볼까	-8139
▁까먹었어	-8140
▁깎아야지	-8141
▁깨달음이	-8142
▁끝일지도	-8143
▁나겠어요	-8144
▁나누는게	-8145
▁나아지길	-8146
▁나에게도	-8147
▁나오라고	-8148
▁나오세요	-8149
▁날이에요	-8150
▁남자애랑	-8151
▁내려놓고	-8152
▁내리는게	-8153
▁냉장고에	-8154
▁너덜너덜	-8155
▁너무하네	-8156
▁노력해도	-8157
▁누구보다	-8158
▁누구한테	-8159
▁느낀다면	-8160
▁느려졌어	-8161
▁다가가도	-8162
▁다가오고	-8163
▁다되가네	-8164
▁달리세요	-8165
▁답답하다	-8166
▁답답해서	-8167
▁당연해요	-8168
▁대리효도	-8169
▁데이트는	-8170
▁데이트할	-8171
▁도와줘야	-8172
▁돌아가는	-8173
▁돌아오길	-8174
▁돌아오는	-8175
▁돌아오지	-8176
▁돌아올까	-8177
▁동생이랑	-8178
▁동생인데	-8179
▁됐습니다	-8180
▁되어가길	-8181
▁되어가네	-8182
▁되었는지	-8183
▁두고두고	-8184
▁드는걸로	-8185
▁들어오면	-8186
▁따끔하게	-8187
▁마음가는	-8188
▁마음에게	-8189
▁마음인지	-8190
▁마주치면	-8191
▁마주치지	-8192
▁마지막을	-8193
▁마지막이	-8194
▁만나기만	-8195
▁만나자는	-8196
▁말이예요	-8197
▁말하는게	-8198
▁말해보는	-8199
▁말해야지	-8200
▁맞나봐요	-8201
▁머릿속이	-8202
▁멋있네요	-8203
▁멋지네요	-8204
▁모르겠다	-8205
▁모습으로	-8206
▁몰랐어요	-8207
▁못하는데	-8208
▁못했군요	-8209
▁무너졌어	-8210
▁무뎌지는	-8211
▁문득문득	-8212
▁물리적인	-8213
▁뭐하냐고	-8214
▁뭐하는지	-8215
▁미련없이	-8216
▁미소짓게	-8217
▁미안하대	-8218
▁미화되기	-8219
▁믿었는데	-8220
▁바꾸세요	-8221
▁바꿔볼까	-8222
▁바꿔야지	-8223
▁바디로션	-8224
▁바디워시	-8225
▁바라는게	-8226
▁바란다면	-8227
▁바보같이	-8228
▁반대래요	-8229
▁반복되는	-8230
▁방법이죠	-8231
▁배고파서	-8232
▁배려해야	-8233
▁배우세요	-8234
▁배우자가	-8235
▁배워가는	-8236
▁배워보고	-8237
▁배워볼까	-8238
▁버려야지	-8239
▁베터리가	-8240
▁변해가는	-8241
▁별로네요	-8242
▁보내세요	-8243
▁보냈으니	-8244
▁복잡하게	-8245
▁봐보세요	-8246
▁봐주세요	-8247
▁봤습니다	-8248
▁부모님께	-8249
▁부정적인	-8250
▁부족한가	-8251
▁분명하게	-8252
▁분위기가	-8253
▁브랜드가	-8254
▁비슷하죠	-8255
▁비오는날	-8256
▁비트코인	-8257
▁비혼주의	-8258
▁사귀는데	-8259
▁사귀세요	-8260
▁사귀자고	-8261
▁사귀자는	-8262
▁사람만의	-8263
▁사랑받는	-8264
▁사랑보다	-8265
▁사랑에도	-8266
▁사랑하게	-8267
▁사랑해줄	-8268
▁사랑했어	-8269
▁삭제하는	-8270
▁살고싶어	-8271
▁살아가는	-8272
▁살아야죠	-8273
▁살았는데	-8274
▁상관없이	-8275
▁상대방은	-8276
▁상처받게	-8277
▁생각없이	-8278
▁생각일까	-8279
▁생각지도	-8280
▁생각처럼	-8281
▁생각했던	-8282
▁생일선물	-8283
▁선물해도	-8284
▁선택으로	-8285
▁세상이죠	-8286
▁속박에서	-8287
▁손가락이	-8288
▁솔직하고	-8289
▁쉬어가는	-8290
▁스스로를	-8291
▁스타일에	-8292
▁시간낭비	-8293
▁시간인데	-8294
▁시골에서	-8295
▁시끄러워	-8296
▁시어머니	-8297
▁시작하는	-8298
▁시키세요	-8299
▁식단조절	-8300
▁신경쓰인	-8301
▁실망하지	-8302
▁실용적인	-8303
▁심심한데	-8304
▁싶나봐요	-8305
▁썸인가요	-8306
▁아날로그	-8307
▁아니겠지	-8308
▁아니었어	-8309
▁아무말도	-8310
▁아침마다	-8311
▁아파하고	-8312
▁아프지만	-8313
▁안되겠죠	-8314
▁않습니다	-8315
▁않았네요	-8316
▁않았다면	-8317
▁알겠어서	-8318
▁알바생이	-8319
▁알아가는	-8320
▁애완동물	-8321
▁얘기하지	-8322
▁어디가지	-8323
▁어디에서	-8324
▁어린이집	-8325
▁어울릴까	-8326
▁어장인거	-8327
▁언제부터	-8328
▁얼굴보고	-8329
▁없습니다	-8330
▁없으면서	-8331
▁여우같은	-8332
▁여유롭게	-8333
▁여자인데	-8334
▁여친이랑	-8335
▁여행가고	-8336
▁연락오네	-8337
▁연습하고	-8338
▁연애상담	-8339
▁연애할때	-8340
▁연예인도	-8341
▁영화보고	-8342
▁영화보러	-8343
▁예상하지	-8344
▁오랜연애	-8345
▁외롭다고	-8346
▁웬수네요	-8347
▁웬수예요	-8348
▁의미일까	-8349
▁의심하지	-8350
▁의지해도	-8351
▁이겨내고	-8352
▁이뤄지지	-8353
▁이별이든	-8354
▁이별하면	-8355
▁이사하는	-8356
▁이상한가	-8357
▁이상형을	-8358
▁이야기는	-8359
▁이야기할	-8360
▁이용하는	-8361
▁이제부터	-8362
▁이해해요	-8363
▁인기있는	-8364
▁인연이죠	-8365
▁인정하는	-8366
▁일상으로	-8367
▁일어나야	-8368
▁일요일에	-8369
▁일이라도	-8370
▁일주일이	-8371
▁있었어요	-8372
▁자신만의	-8373
▁자야겠다	-8374
▁자존심을	-8375
▁잘되니까	-8376
▁잘해주면	-8377
▁장난인지	-8378
▁재미있는	-8379
▁쟁취하는	-8380
▁적극적인	-8381
▁전화해도	-8382
▁접촉하는	-8383
▁정리되길	-8384
▁정리하게	-8385
▁정리하길	-8386
▁제정신이	-8387
▁조급하게	-8388
▁종지부를	-8389
▁좋아졌어	-8390
▁좋아한대	-8391
▁좋을지도	-8392
▁주말이네	-8393
▁주말인데	-8394
▁지겨워진	-8395
▁지나가는	-8396
▁지났는데	-8397
▁지났어요	-8398
▁진지하게	-8399
▁집착하게	-8400
▁짝사랑만	-8401
▁차단하고	-8402
▁차례예요	-8403
▁차분하고	-8404
▁찾아오네	-8405
▁척하는게	-8406
▁첫사랑을	-8407
▁첫인상은	-8408
▁최저임금	-8409
▁추운가요	-8410
▁취직이나	-8411
▁친구들은	-8412
▁친구에게	-8413
▁크기만큼	-8414
▁토닥토닥	-8415
▁통보하는	-8416
▁퇴근길에	-8417
▁판도라의	-8418
▁편안하게	-8419
▁편안해질	-8420
▁편하다는	-8421
▁표현하기	-8422
▁피곤해서	-8423
▁한달만에	-8424
▁해달라고	-8425
▁해야겠죠	-8426
▁해야하나	-8427
▁해주는게	-8428
▁해주면서	-8429
▁해줬으면	-8430
▁행복하면	-8431
▁허무하네	-8432
▁헤어지네	-8433
▁헤어짐도	-8434
▁혼인신고	-8435
▁확실하게	-8436
▁확인하고	-8437
▁후회안할	-8438
▁후회하면	-8439
▁훔쳐보는	-8440
▁흐지부지	-8441
▁흘리세요	-8442
▁희생양이	-8443
▁히스테리	-8444
▁힘들거라	-8445
▁힘들어도	-8446
▁힘이드네	-8447
버렸습니다	-8448
었나봅니다	-8449
이었나봐요	-8450
하고싶은데	-8451
하더라고요	-8452
하시겠어요	-8453
해졌나봐요	-8454
▁가능할까요	-8455
▁가져주세요	-8456
▁개강이라니	-8457
▁객관적으로	-8458
▁걱정마세요	-8459
▁것만으로도	-8460
▁고민이네요	-8461
▁고백받았어	-8462
▁고백할까요	-8463
▁괜찮습니다	-8464
▁구체적으로	-8465
▁귀엽겠네요	-8466
▁기대했는데	-8467
▁기도할게요	-8468
▁길러보세요	-8469
▁깊었나봐요	-8470
▁남사친이랑	-8471
▁남편이네요	-8472
▁느껴보세요	-8473
▁다되어가네	-8474
▁다를거예요	-8475
▁달려있겠죠	-8476
▁답답할거라	-8477
▁당신이네요	-8478
▁데이트하고	-8479
▁뒤숭숭하네	-8480
▁따져보세요	-8481
▁때문이겠죠	-8482
▁때문이에요	-8483
▁떨리겠어요	-8484
▁떨어뜨려서	-8485
▁마셔보세요	-8486
▁마음이네요	-8487
▁마음이에요	-8488
▁만들어봐요	-8489
▁모르겠지만	-8490
▁무덤덤해질	-8491
▁무시당하는	-8492
▁문제인가요	-8493
▁물어보거나	-8494
▁미안해하지	-8495
▁믿어주세요	-8496
▁반갑습니다	-8497
▁반했나봐요	-8498
▁변덕스럽게	-8499
▁보내보세요	-8500
▁복잡한가요	-8501
▁봉사활동도	-8502
▁부담스러울	-8503
▁분인가봐요	-8504
▁사람들한테	-8505
▁사람일지도	-8506
▁사랑이라고	-8507
▁사랑이야기	-8508
▁사랑하는지	-8509
▁사랑하세요	-8510
▁사랑합니다	-8511
▁사랑해주는	-8512
▁생각나네요	-8513
▁생각하면서	-8514
▁서운하다고	-8515
▁쉬어가세요	-8516
▁습관처럼은	-8517
▁시간이었을	-8518
▁시간이에요	-8519
▁신경쓰이는	-8520
▁심리일까요	-8521
▁썸이었으면	-8522
▁아껴주세요	-8523
▁아닐거예요	-8524
▁아파하다가	-8525
▁아프겠어요	-8526
▁안되나봐요	-8527
▁안좋아하는	-8528
▁애프터까지	-8529
▁없어졌으면	-8530
▁여사친이랑	-8531
▁영화관이나	-8532
▁왔나봅니다	-8533
▁유통기한이	-8534
▁유효기간이	-8535
▁의미부여는	-8536
▁이별이에요	-8537
▁이별하려고	-8538
▁이야기해요	-8539
▁익숙해지지	-8540
▁인사드리러	-8541
▁인생이에요	-8542
▁인연이라면	-8543
▁인정하세요	-8544
▁일어났더니	-8545
▁일이니까요	-8546
▁일주일이네	-8547
▁잊어버리는	-8548
▁잘하셨어요	-8549
▁장난스러운	-8550
▁재회했는데	-8551
▁전여친이랑	-8552
▁전여친한테	-8553
▁접어두셔요	-8554
▁정리하는데	-8555
▁정리하려고	-8556
▁제자리여도	-8557
▁조금이나마	-8558
▁존중합니다	-8559
▁좋겠습니다	-8560
▁좋아하니까	-8561
▁좋아할까요	-8562
▁좋았을텐데	-8563
▁주말이네요	-8564
▁준비되어야	-8565
▁준비하는데	-8566
▁중독인가봐	-8567
▁중요하겠죠	-8568
▁지긋지긋한	-8569
▁지켜주세요	-8570
▁진정하세요	-8571
▁질투난다고	-8572
▁짝사랑에서	-8573
▁찍어주세요	-8574
▁차단하세요	-8575
▁채워보세요	-8576
▁채워줄게요	-8577
▁챙겨주세요	-8578
▁최선이었을	-8579
▁추천드려요	-8580
▁크시겠어요	-8581
▁태어났을까	-8582
▁팔아보세요	-8583
▁표현하세요	-8584
▁필요한가요	-8585
▁하셨나봐요	-8586
▁한달이에요	-8587
▁행복했으면	-8588
▁헤어지자는	-8589
▁헤어진지도	-8590
▁헬스장에서	-8591
▁혼란스러워	-8592
▁흘렀나봐요	-8593
▁결혼적령기가	-8594
▁고민해보세요	-8595
▁그리운가봐요	-8596
▁기울여보세요	-8597
▁다독여주세요	-8598
▁대화해보세요	-8599
▁도와드릴게요	-8600
▁도전해보세요	-8601
▁드라이플라워	-8602
▁떨쳐버리세요	-8603
▁무덤덤해지는	-8604
▁받아들이세요	-8605
▁배려해보세요	-8606
▁복잡한가봐요	-8607
▁부족한가봐요	-8608
▁빠져나오세요	-8609
▁상의해보세요	-8610
▁새출발하세요	-8611
▁생각하나봐요	-8612
▁생각해봅니다	-8613
▁서운하겠어요	-8614
▁설득해보세요	-8615
▁신청해보세요	-8616
▁여기까지였을	-8617
▁연락해도될까	-8618
▁연락했습니다	-8619
▁의지해보세요	-8620
▁이야기하세요	-8621
▁이어나가는게	-8622
▁익숙해지지가	-8623
▁있었나봅니다	-8624
▁정리했습니다	-8625
▁제안해보세요	-8626
▁존중해줬으면	-8627
▁좋아하는데도	-8628
▁좋아했나봐요	-8629
▁중요하니까요	-8630
▁착잡하겠어요	-8631
▁칭찬해보세요	-8632
▁표현해주세요	-8633
▁피곤하겠어요	-8634
▁허전하겠어요	-8635
▁허전한가봐요	-8636
▁헛헛한가봐요	-8637
▁헤어지고나서	-8638
▁화이트데이에	-8639
▁힘들었을텐데	-8640
▁결혼적령기예요	-8641
▁그린라이트일까	-8642
▁당황하셨겠어요	-8643
▁들어맞나봅니다	-8644
▁마음정리하세요	-8645
▁받아들여보세요	-8646
▁사람이었나봐요	-8647
▁사랑이었나봐요	-8648
▁사랑하나봅니다	-8649
▁신경쓰이나봐요	-8650
▁사랑이었으니까요	-8651
.!	-8652
?.	-8653
CC	-8654
go	-8655
▁!	-8656
▁,	-8657
▁?	-8658
▁B	-8659
▁O	-8660
▁값	-8661
▁걍	-8662
▁괘	-8663
▁규	-8664
▁균	-8665
▁귤	-8666
▁깐	-8667
▁깬	-8668
▁깼	-8669
▁꼴	-8670
▁꿩	-8671
▁낀	-8672
▁낌	-8673
▁넥	-8674
▁논	-8675
▁눅	-8676
▁닥	-8677
▁댄	-8678
▁댓	-8679
▁덧	-8680
▁덮	-8681
▁둬	-8682
▁듬	-8683
▁띵	-8684
▁를	-8685
▁범	-8686
▁뷔	-8687
▁빽	-8688
▁삔	-8689
▁섞	-8690
▁섹	-8691
▁솜	-8692
▁송	-8693
▁쌈	-8694
▁썩	-8695
▁쑤	-8696
▁압	-8697
▁왼	-8698
▁줬	-8699
▁닭	-8700
▁롤	-8701
▁쥬	-8702
▁짤	-8703
▁짬	-8704
▁쩌	-8705
▁쪘	-8706
▁쳇	-8707
▁촉	-8708
▁캐	-8709
▁쿠	-8710
▁탐	-8711
▁팬	-8712
▁펑	-8713
▁홀	-8714
▁힌	-8715
가나	-8716
가운	-8717
가입	-8718
가짐	-8719
간당	-8720
간에	-8721
감기	-8722
감정	-8723
감한	-8724
값을	-8725
값이	-8726
강차	-8727
갖지	-8728
같네	-8729
같다	-8730
거란	-8731
거로	-8732
걸리	-8733
검진	-8734
것에	-8735
게를	-8736
게탕	-8737
겟죠	-8738
결이	-8739
경우	-8740
고는	-8741
고문	-8742
고민	-8743
곡에	-8744
곡차	-8745
곤증	-8746
골이	-8747
과의	-8748
과적	-8749
관념	-8750
관에	-8751
구가	-8752
구마	-8753
구만	-8754
구죠	-8755
구쳐	-8756
국수	-8757
궁무	-8758
권이	-8759
그란	-8760
그래	-8761
그인	-8762
근무	-8763
금도	-8764
금통	-8765
기견	-8766
기네	-8767
기라	-8768
기름	-8769
기면	-8770
기운	-8771
기자	-8772
기정	-8773
기찬	-8774
긴건	-8775
긴지	-8776
길게	-8777
깃만	-8778
까옷	-8779
깍째	-8780
꺼비	-8781
꼬리	-8782
꽂이	-8783
꾸난	-8784
꿀해	-8785
끝이	-8786
나긴	-8787
나보	-8788
나쁘	-8789
나쁜	-8790
나올	-8791
낫네	-8792
내기	-8793
널을	-8794
넛오	-8795
년여	-8796
노력	-8797
놈들	-8798
눅해	-8799
▁빙	-8800
▁빡	-8801
▁뺏	-8802
▁샐	-8803
▁섣	-8804
▁숏	-8805
▁썰	-8806
겟어	-8807
견례	-8808
눴길	-8809
는것	-8810
늦게	-8811
니즘	-8812
니티	-8813
다네	-8814
다녀	-8815
다시	-8816
단은	-8817
달까	-8818
달된	-8819
달반	-8820
달할	-8821
담길	-8822
당을	-8823
당황	-8824
대사	-8825
댓말	-8826
던게	-8827
던곳	-8828
던데	-8829
덜덜	-8830
데기	-8831
도염	-8832
돌림	-8833
동생	-8834
동을	-8835
돼야	-8836
되게	-8837
되고	-8838
되실	-8839
되어	-8840
된거	-8841
두통	-8842
둥해	-8843
뒹글	-8844
드리	-8845
들로	-8846
들만	-8847
들요	-8848
듯할	-8849
디게	-8850
디오	-8851
뚝뚝	-8852
띠를	-8853
라구	-8854
라뇨	-8855
라를	-8856
람을	-8857
랭이	-8858
량을	-8859
러니	-8860
러드	-8861
러운	-8862
런치	-8863
럴까	-8864
럽을	-8865
레질	-8866
려야	-8867
력소	-8868
례품	-8869
례허	-8870
록금	-8871
록초	-8872
론가	-8873
롭지	-8874
료를	-8875
루즈	-8876
루투	-8877
룽지	-8878
류성	-8879
르륵	-8880
르쳐	-8881
를까	-8882
리나	-8883
리다	-8884
리두	-8885
리래	-8886
리로	-8887
리마	-8888
리며	-8889
림도	-8890
릿빛	-8891
마려	-8892
마시	-8893
마음	-8894
마저	-8895
많은	-8896
말자	-8897
망한	-8898
매가	-8899
▁얇	-8900
▁옛	-8901
▁옮	-8902
▁젊	-8903
▁켠	-8904
거다	-8905
동진	-8906
맨날	-8907
머코	-8908
먼이	-8909
메라	-8910
면과	-8911
면에	-8912
명빨	-8913
모두	-8914
모호	-8915
목을	-8916
몸이	-8917
몸일	-8918
무슨	-8919
문서	-8920
문제	-8921
물도	-8922
물이	-8923
미리	-8924
미팅	-8925
밖의	-8926
반에	-8927
받쳐	-8928
밥통	-8929
방안	-8930
방은	-8931
방져	-8932
방학	-8933
방향	-8934
밭길	-8935
배를	-8936
배정	-8937
배추	-8938
백번	-8939
뱃돈	-8940
버는	-8941
벅스	-8942
번째	-8943
벨이	-8944
보길	-8945
보까	-8946
보단	-8947
보지	-8948
볶음	-8949
본적	-8950
볼께	-8951
봉지	-8952
봤자	-8953
부려	-8954
부름	-8955
부분	-8956
부탁	-8957
분만	-8958
분씩	-8959
분크	-8960
붓고	-8961
브네	-8962
블러	-8963
비스	-8964
비에	-8965
빈과	-8966
빌려	-8967
빼고	-8968
사고	-8969
사빠	-8970
상실	-8971
상화	-8972
새가	-8973
새끼	-8974
생에	-8975
서는	-8976
서를	-8977
서서	-8978
서클	-8979
선한	-8980
설팅	-8981
셔도	-8982
션은	-8983
손잡	-8984
수궁	-8985
수로	-8986
수리	-8987
수의	-8988
수한	-8989
스가	-8990
스런	-8991
스터	-8992
슬려	-8993
습기	-8994
시작	-8995
시킬	-8996
식장	-8997
싫어	-8998
심리	-8999
▁텁	-9000
▁툭	-9001
▁풍	-9002
박씨	-9003
소연	-9004
싶고	-9005
싶지	-9006
싹한	-9007
씨가	-9008
씨방	-9009
씰룩	-9010
아플	-9011
안돼	-9012
안상	-9013
않은	-9014
야돼	-9015
야를	-9016
야한	-9017
양지	-9018
어린	-9019
어싱	-9020
어오	-9021
어져	-9022
언제	-9023
없죠	-9024
었대	-9025
여다	-9026
여둔	-9027
열다	-9028
였길	-9029
예보	-9030
오르	-9031
오톡	-9032
온대	-9033
올게	-9034
올랐	-9035
옴을	-9036
와야	-9037
외비	-9038
용에	-9039
용이	-9040
용증	-9041
우길	-9042
우선	-9043
우울	-9044
울때	-9045
울컥	-9046
웃풋	-9047
워크	-9048
월의	-9049
웠길	-9050
육이	-9051
율주	-9052
으실	-9053
을거	-9054
을수	-9055
음만	-9056
의끝	-9057
의해	-9058
이게	-9059
이기	-9060
이란	-9061
이런	-9062
이에	-9063
이한	-9064
인건	-9065
인걸	-9066
인배	-9067
인사	-9068
인은	-9069
인척	-9070
일꺼	-9071
일로	-9072
일링	-9073
일을	-9074
일지	-9075
읽씹	-9076
임머	-9077
있게	-9078
있네	-9079
있다	-9080
있죠	-9081
자격	-9082
자아	-9083
작용	-9084
잔데	-9085
잘라	-9086
잡고	-9087
잡는	-9088
장애	-9089
장판	-9090
재가	-9091
저것	-9092
저나	-9093
저트	-9094
적을	-9095
적추	-9096
적한	-9097
전과	-9098
전순	-9099
전의	-9100
전이	-9101
전한	-9102
절염	-9103
절할	-9104
정말	-9105
제차	-9106
젝트	-9107
져트	-9108
졌다	-9109
조를	-9110
조리	-9111
조언	-9112
종료	-9113
죄지	-9114
주긴	-9115
주네	-9116
주를	-9117
주시	-9118
주정	-9119
주차	-9120
준것	-9121
줌마	-9122
줍게	-9123
중을	-9124
증금	-9125
증이	-9126
지망	-9127
직한	-9128
진짜	-9129
질러	-9130
집에	-9131
징글	-9132
쨌든	-9133
쪽이	-9134
찌개	-9135
차단	-9136
차로	-9137
차이	-9138
착이	-9139
찬하	-9140
찰에	-9141
처녀	-9142
척해	-9143
철과	-9144
청약	-9145
쳐올	-9146
쳐요	-9147
추는	-9148
추억	-9149
추위	-9150
출할	-9151
취를	-9152
취제	-9153
츠러	-9154
치길	-9155
치죠	-9156
칠까	-9157
카롱	-9158
커페	-9159
커풀	-9160
켰어	-9161
클링	-9162
키는	-9163
키니	-9164
키우	-9165
타기	-9166
타면	-9167
타민	-9168
타이	-9169
탈때	-9170
탈출	-9171
태솔	-9172
턴을	-9173
테크	-9174
토닉	-9175
통약	-9176
투리	-9177
틀어	-9178
틈이	-9179
판의	-9180
팔며	-9181
패딩	-9182
편지	-9183
폭력	-9184
표시	-9185
푸려	-9186
풀이	-9187
프다	-9188
프로	-9189
피성	-9190
피스	-9191
하구	-9192
하내	-9193
하냐	-9194
하든	-9195
하를	-9196
학생	-9197
할땐	-9198
합성	-9199
해놓	-9200
해당	-9201
햇다	-9202
했대	-9203
향이	-9204
험실	-9205
호팬	-9206
화식	-9207
확보	-9208
후에	-9209
휴가	-9210
히지	-9211
~~~	-9212
▁14	-9213
▁CC	-9214
▁SD	-9215
▁가네	-9216
▁가며	-9217
▁가봐	-9218
▁가사	-9219
▁가재	-9220
▁가죠	-9221
▁가출	-9222
▁가혹	-9223
▁간에	-9224
▁간지	-9225
▁갈구	-9226
▁강림	-9227
▁갖는	-9228
▁같죠	-9229
▁거래	-9230
▁거릴	-9231
▁거창	-9232
▁걷기	-9233
▁걸렸	-9234
▁것과	-9235
▁겪은	-9236
▁견딜	-9237
▁고비	-9238
▁고시	-9239
▁고작	-9240
▁고파	-9241
▁공채	-9242
▁교통	-9243
▁교환	-9244
▁구걸	-9245
▁귀차	-9246
▁그곳	-9247
▁그놈	-9248
▁그후	-9249
▁근무	-9250
▁근질	-9251
▁근황	-9252
▁금물	-9253
▁기계	-9254
▁기부	-9255
▁기뻐	-9256
▁기쁜	-9257
▁기우	-9258
▁기적	-9259
▁기차	-9260
▁기초	-9261
▁기특	-9262
▁기한	-9263
▁기획	-9264
▁깊이	-9265
▁깜깜	-9266
▁깨질	-9267
▁꾸고	-9268
▁꿈도	-9269
▁끊겼	-9270
▁나갈	-9271
▁나감	-9272
▁나길	-9273
▁나로	-9274
▁나름	-9275
▁나쁨	-9276
▁나에	-9277
▁나옴	-9278
▁난처	-9279
▁날은	-9280
▁낫고	-9281
▁낫다	-9282
▁낫지	-9283
▁내길	-9284
▁내도	-9285
▁내릴	-9286
▁내장	-9287
▁너그	-9288
▁너란	-9289
▁너만	-9290
▁너와	-9291
▁넓고	-9292
▁노답	-9293
▁놀라	-9294
▁놀려	-9295
▁높이	-9296
▁누나	-9297
▁눈빛	-9298
▁눕지	-9299
▁ᅮᅮ	-9300
▁건네	-9301
▁날인	-9302
▁낮춰	-9303
▁늦기	-9304
▁다그	-9305
▁다신	-9306
▁다운	-9307
▁다크	-9308
▁다한	-9309
▁단어	-9310
▁단지	-9311
▁단짠	-9312
▁닫고	-9313
▁달랐	-9314
▁달이	-9315
▁담은	-9316
▁답변	-9317
▁답인	-9318
▁당구	-9319
▁당함	-9320
▁대만	-9321
▁대빵	-9322
▁대신	-9323
▁덕질	-9324
▁덜어	-9325
▁데에	-9326
▁독특	-9327
▁돋을	-9328
▁돌릴	-9329
▁돌봐	-9330
▁동상	-9331
▁동의	-9332
▁되긴	-9333
▁되요	-9334
▁두지	-9335
▁둘을	-9336
▁등이	-9337
▁디자	-9338
▁따위	-9339
▁때의	-9340
▁땜에	-9341
▁떠서	-9342
▁뜬금	-9343
▁마냥	-9344
▁마디	-9345
▁마찬	-9346
▁마트	-9347
▁막고	-9348
▁막상	-9349
▁만보	-9350
▁만의	-9351
▁만져	-9352
▁말들	-9353
▁말라	-9354
▁말려	-9355
▁말지	-9356
▁맘같	-9357
▁맘은	-9358
▁맞장	-9359
▁머물	-9360
▁먹게	-9361
▁먹다	-9362
▁먹든	-9363
▁먹방	-9364
▁먹죠	-9365
▁먼데	-9366
▁멍때	-9367
▁명언	-9368
▁모공	-9369
▁모양	-9370
▁모음	-9371
▁모의	-9372
▁모질	-9373
▁목도	-9374
▁몸도	-9375
▁몸은	-9376
▁못가	-9377
▁못나	-9378
▁못났	-9379
▁못내	-9380
▁못된	-9381
▁못믿	-9382
▁못받	-9383
▁무난	-9384
▁무료	-9385
▁무사	-9386
▁무죄	-9387
▁물론	-9388
▁뭐니	-9389
▁뭐였	-9390
▁바본	-9391
▁바이	-9392
▁반납	-9393
▁반이	-9394
▁받게	-9395
▁받니	-9396
▁발레	-9397
▁발을	-9398
▁밟힐	-9399
▁감미	-9400
▁감이	-9401
▁걸음	-9402
▁걸지	-9403
▁공급	-9404
▁공동	-9405
▁공연	-9406
▁공원	-9407
▁드러	-9408
▁드론	-9409
▁들켰	-9410
▁미쳐	-9411
▁밤이	-9412
▁밥도	-9413
▁방심	-9414
▁방에	-9415
▁번의	-9416
▁법적	-9417
▁변기	-9418
▁보관	-9419
▁보답	-9420
▁보드	-9421
▁보장	-9422
▁보조	-9423
▁보죠	-9424
▁복근	-9425
▁복붙	-9426
▁복이	-9427
▁본거	-9428
▁본다	-9429
▁볼매	-9430
▁봄에	-9431
▁봐야	-9432
▁부네	-9433
▁부는	-9434
▁부려	-9435
▁부르	-9436
▁부메	-9437
▁부산	-9438
▁부추	-9439
▁분다	-9440
▁불과	-9441
▁불륜	-9442
▁불쌍	-9443
▁붙어	-9444
▁뷔페	-9445
▁비례	-9446
▁비비	-9447
▁비우	-9448
▁비추	-9449
▁빠진	-9450
▁빼면	-9451
▁뿌얘	-9452
▁사적	-9453
▁사줄	-9454
▁사지	-9455
▁사치	-9456
▁산다	-9457
▁산에	-9458
▁살게	-9459
▁살랑	-9460
▁살릴	-9461
▁살살	-9462
▁살았	-9463
▁삶도	-9464
▁새가	-9465
▁서글	-9466
▁선연	-9467
▁선천	-9468
▁세수	-9469
▁소가	-9470
▁소극	-9471
▁소맥	-9472
▁소모	-9473
▁소분	-9474
▁소풍	-9475
▁소홀	-9476
▁속는	-9477
▁속사	-9478
▁손님	-9479
▁손목	-9480
▁수강	-9481
▁수고	-9482
▁수만	-9483
▁수박	-9484
▁수순	-9485
▁쉬게	-9486
▁쉴만	-9487
▁스몰	-9488
▁시누	-9489
▁시린	-9490
▁시절	-9491
▁시청	-9492
▁시트	-9493
▁식초	-9494
▁신용	-9495
▁실로	-9496
▁싫대	-9497
▁심란	-9498
▁심플	-9499
▁겠죠	-9500
▁골인	-9501
▁날까	-9502
▁날도	-9503
▁날들	-9504
▁날려	-9505
▁날카	-9506
▁도움	-9507
▁맞길	-9508
▁맞음	-9509
▁서먹	-9510
▁서지	-9511
▁숨길	-9512
▁신입	-9513
▁신행	-9514
▁실비	-9515
▁싶고	-9516
▁싶대	-9517
▁싶을	-9518
▁싸는	-9519
▁쌓아	-9520
▁써서	-9521
▁썸임	-9522
▁썼길	-9523
▁쓰여	-9524
▁쓸모	-9525
▁씨앗	-9526
▁씹어	-9527
▁씻어	-9528
▁아른	-9529
▁아시	-9530
▁아싸	-9531
▁아재	-9532
▁아휴	-9533
▁안날	-9534
▁안내	-9535
▁안열	-9536
▁안올	-9537
▁안이	-9538
▁안정	-9539
▁않나	-9540
▁않다	-9541
▁앞이	-9542
▁애국	-9543
▁애그	-9544
▁애니	-9545
▁애써	-9546
▁애야	-9547
▁얼어	-9548
▁없음	-9549
▁엉엉	-9550
▁여부	-9551
▁연금	-9552
▁연기	-9553
▁연연	-9554
▁열쇠	-9555
▁영역	-9556
▁예랑	-9557
▁예를	-9558
▁오긴	-9559
▁오나	-9560
▁오니	-9561
▁오후	-9562
▁옷차	-9563
▁와라	-9564
▁와우	-9565
▁외박	-9566
▁외부	-9567
▁외식	-9568
▁욕먹	-9569
▁욕함	-9570
▁우는	-9571
▁우정	-9572
▁울면	-9573
▁울어	-9574
▁웃기	-9575
▁위층	-9576
▁이길	-9577
▁이룰	-9578
▁이른	-9579
▁이마	-9580
▁이발	-9581
▁이쁘	-9582
▁이웃	-9583
▁이자	-9584
▁이후	-9585
▁익숨	-9586
▁인강	-9587
▁인도	-9588
▁일까	-9589
▁일로	-9590
▁일요	-9591
▁일일	-9592
▁일정	-9593
▁읽고	-9594
▁읽을	-9595
▁잃을	-9596
▁입는	-9597
▁있니	-9598
▁있으	-9599
▁계단	-9600
▁놀지	-9601
▁달래	-9602
▁달리	-9603
▁달에	-9604
▁달째	-9605
▁따듯	-9606
▁막장	-9607
▁반항	-9608
▁뻔뻔	-9609
▁새는	-9610
▁성급	-9611
▁성이	-9612
▁손재	-9613
▁숏컷	-9614
▁쉬울	-9615
▁쉬워	-9616
▁싫네	-9617
▁약초	-9618
▁요가	-9619
▁위를	-9620
▁위안	-9621
▁잊게	-9622
▁잊은	-9623
▁자게	-9624
▁자길	-9625
▁자니	-9626
▁자랑	-9627
▁자식	-9628
▁자야	-9629
▁작게	-9630
▁잘가	-9631
▁잘게	-9632
▁잘된	-9633
▁잘될	-9634
▁잘래	-9635
▁잘맞	-9636
▁잘참	-9637
▁잠겨	-9638
▁잠길	-9639
▁잠도	-9640
▁잠은	-9641
▁잡을	-9642
▁잤네	-9643
▁장만	-9644
▁장수	-9645
▁장애	-9646
▁장이	-9647
▁재택	-9648
▁저렴	-9649
▁저요	-9650
▁저의	-9651
▁저축	-9652
▁전형	-9653
▁정글	-9654
▁정들	-9655
▁정량	-9656
▁정색	-9657
▁정치	-9658
▁제길	-9659
▁제로	-9660
▁조교	-9661
▁조깅	-9662
▁존경	-9663
▁주눅	-9664
▁주당	-9665
▁주소	-9666
▁주위	-9667
▁주절	-9668
▁주체	-9669
▁죽지	-9670
▁줄에	-9671
▁줄여	-9672
▁중소	-9673
▁중의	-9674
▁중이	-9675
▁지겹	-9676
▁지기	-9677
▁지끈	-9678
▁지름	-9679
▁지불	-9680
▁지상	-9681
▁지식	-9682
▁지침	-9683
▁지칩	-9684
▁진리	-9685
▁진출	-9686
▁질척	-9687
▁짐작	-9688
▁집사	-9689
▁짤릴	-9690
▁쪼잔	-9691
▁쪽팔	-9692
▁쫄면	-9693
▁찌는	-9694
▁찌뿌	-9695
▁차도	-9696
▁차면	-9697
▁차임	-9698
▁차차	-9699
▁돌싱	-9700
▁듯이	-9701
▁맛도	-9702
▁몰아	-9703
▁문콕	-9704
▁발바	-9705
▁배움	-9706
▁복합	-9707
▁심각	-9708
▁심장	-9709
▁심정	-9710
▁욕은	-9711
▁직설	-9712
▁착용	-9713
▁착할	-9714
▁찰랑	-9715
▁참외	-9716
▁찾기	-9717
▁책만	-9718
▁책장	-9719
▁처방	-9720
▁천지	-9721
▁철은	-9722
▁첫키	-9723
▁청약	-9724
▁초과	-9725
▁초초	-9726
▁촬영	-9727
▁최소	-9728
▁추세	-9729
▁추울	-9730
▁축가	-9731
▁춥냐	-9732
▁취할	-9733
▁취해	-9734
▁치킨	-9735
▁친해	-9736
▁침착	-9737
▁카카	-9738
▁카풀	-9739
▁커요	-9740
▁코인	-9741
▁코코	-9742
▁코트	-9743
▁콜록	-9744
▁크는	-9745
▁클스	-9746
▁키스	-9747
▁타게	-9748
▁타도	-9749
▁타로	-9750
▁타입	-9751
▁탄탄	-9752
▁태닝	-9753
▁태산	-9754
▁텁텁	-9755
▁텅비	-9756
▁파급	-9757
▁파마	-9758
▁파토	-9759
▁펑펑	-9760
▁펴고	-9761
▁편을	-9762
▁편하	-9763
▁편히	-9764
▁평안	-9765
▁평일	-9766
▁폰이	-9767
▁푸석	-9768
▁풀려	-9769
▁품에	-9770
▁피고	-9771
▁피맥	-9772
▁피지	-9773
▁하곤	-9774
▁하긴	-9775
▁하길	-9776
▁하냐	-9777
▁하실	-9778
▁하트	-9779
▁하품	-9780
▁한고	-9781
▁한복	-9782
▁한살	-9783
▁한순	-9784
▁한심	-9785
▁한자	-9786
▁한지	-9787
▁할때	-9788
▁할래	-9789
▁할일	-9790
▁해낸	-9791
▁해놨	-9792
▁해봐	-9793
▁해선	-9794
▁햇볕	-9795
▁향이	-9796
▁허허	-9797
▁헤헤	-9798
▁현상	-9799
▁곳과	-9800
▁떨면	-9801
▁명만	-9802
▁버린	-9803
▁세금	-9804
▁세죠	-9805
▁세포	-9806
▁숙면	-9807
▁실력	-9808
▁실컷	-9809
▁쓰네	-9810
▁쓰디	-9811
▁왔나	-9812
▁입맛	-9813
▁학식	-9814
▁호구	-9815
▁호수	-9816
▁화났	-9817
▁화살	-9818
▁환해	-9819
▁후배	-9820
▁후아	-9821
▁휴우	-9822
▁흐를	-9823
▁흘려	-9824
▁힘을	-9825
가라는	-9826
가야지	-9827
가지구	-9828
간다고	-9829
거름이	-9830
거리가	-9831
거리고	-9832
걸지도	-9833
것만은	-9834
것인가	-9835
겼다고	-9836
곡차곡	-9837
곳으로	-9838
관념에	-9839
급이야	-9840
긴다는	-9841
끝이네	-9842
날텐데	-9843
냈는데	-9844
년동거	-9845
는데도	-9846
는데로	-9847
는데요	-9848
니즘을	-9849
다는거	-9850
다워야	-9851
닥까지	-9852
달에는	-9853
담하지	-9854
답이나	-9855
동실에	-9856
됐는데	-9857
되는게	-9858
들어가	-9859
디오를	-9860
때까지	-9861
라는데	-9862
렇게나	-9863
력소가	-9864
렸을까	-9865
료네요	-9866
루투스	-9867
리카드	-9868
모습만	-9869
모습을	-9870
물주물	-9871
뮤니티	-9872
버렸나	-9873
베리아	-9874
보는건	-9875
보는데	-9876
보니까	-9877
봤을때	-9878
부터의	-9879
분크림	-9880
생이면	-9881
셨어요	-9882
소에서	-9883
속으로	-9884
스트나	-9885
시니까	-9886
싶어요	-9887
쓰는게	-9888
압에는	-9889
앞이죠	-9890
액형이	-9891
야할지	-9892
어가는	-9893
어야죠	-9894
어지고	-9895
언하는	-9896
었다고	-9897
에서는	-9898
였지만	-9899
▁구경	-9900
▁구상	-9901
▁구질	-9902
▁맘도	-9903
▁멀미	-9904
▁발급	-9905
▁발등	-9906
▁분석	-9907
▁속을	-9908
▁손을	-9909
▁앞둔	-9910
▁원두	-9911
▁원서	-9912
▁입소	-9913
▁장단	-9914
▁장사	-9915
▁짓만	-9916
▁짜지	-9917
▁철이	-9918
▁취급	-9919
▁취뽀	-9920
▁취준	-9921
▁커지	-9922
▁학과	-9923
▁학회	-9924
다니기	-9925
로부터	-9926
법이랑	-9927
순위에	-9928
오겠죠	-9929
와야지	-9930
와주지	-9931
웃풋이	-9932
워지고	-9933
웠으면	-9934
유하고	-9935
으려구	-9936
으키기	-9937
을까봐	-9938
이기가	-9939
이기도	-9940
이였어	-9941
이크업	-9942
인가를	-9943
인보다	-9944
인으로	-9945
일이야	-9946
일째네	-9947
있는데	-9948
자료를	-9949
자리에	-9950
잔하네	-9951
잼에게	-9952
적인데	-9953
졌겠죠	-9954
좋을까	-9955
죄에요	-9956
주가지	-9957
주는데	-9958
주려고	-9959
중이야	-9960
중인데	-9961
지는듯	-9962
직이수	-9963
진해요	-9964
집에서	-9965
짓으로	-9966
챘을까	-9967
처지는	-9968
컨트롤	-9969
케이스	-9970
코스터	-9971
탈취제	-9972
하게도	-9973
하기만	-9974
하나요	-9975
하더라	-9976
하시길	-9977
하지가	-9978
한만큼	-9979
할만한	-9980
할수록	-9981
할지도	-9982
해서도	-9983
해졌길	-9984
했다가	-9985
확하게	-9986
활용도	-9987
히더라	-9988
▁가는거	-9989
▁가라고	-9990
▁가방은	-9991
▁가보는	-9992
▁가볼까	-9993
▁가봤어	-9994
▁가슴을	-9995
▁각자가	-9996
▁간다고	-9997
▁간다면	-9998
▁간단한	-9999
▁개야	-10000
▁과에	-10001
▁과제	-10002
▁과함	-10003
▁길에	-10004
▁깨는	-10005
▁깨서	-10006
▁놓침	-10007
▁단발	-10008
▁단수	-10009
▁딸까	-10010
▁뜻은	-10011
▁로망	-10012
▁번복	-10013
▁별별	-10014
▁붙여	-10015
▁슬슬	-10016
▁싸가	-10017
▁싸면	-10018
▁싸서	-10019
▁약해	-10020
▁요긴	-10021
▁유세	-10022
▁잡담	-10023
▁잡혀	-10024
▁챙겼	-10025
▁챙기	-10026
▁처량	-10027
▁천일	-10028
▁호텔	-10029
각한데	-10030
들었어	-10031
서부터	-10032
수라도	-10033
시켜야	-10034
조절이	-10035
찹하네	-10036
▁감정소	-10037
▁같기도	-10038
▁같을까	-10039
▁같음을	-10040
▁같이도	-10041
▁개기름	-10042
▁개념만	-10043
▁거부의	-10044
▁걱정일	-10045
▁건들이	-10046
▁건조한	-10047
▁걸어도	-10048
▁겁이나	-10049
▁것부터	-10050
▁게임할	-10051
▁겠네요	-10052
▁결심한	-10053
▁결정난	-10054
▁결정이	-10055
▁결혼도	-10056
▁결혼한	-10057
▁경제력	-10058
▁경찰에	-10059
▁계기를	-10060
▁고데기	-10061
▁고민과	-10062
▁고민돼	-10063
▁고민만	-10064
▁고민은	-10065
▁고백도	-10066
▁고백해	-10067
▁고장이	-10068
▁곤두세	-10069
▁골라줘	-10070
▁곳이요	-10071
▁공감할	-10072
▁공부가	-10073
▁공부도	-10074
▁공부에	-10075
▁공부한	-10076
▁공적인	-10077
▁과거는	-10078
▁과거의	-10079
▁과에서	-10080
▁과외비	-10081
▁과해도	-10082
▁관리가	-10083
▁관리를	-10084
▁괜찮았	-10085
▁괴로운	-10086
▁괴롭혀	-10087
▁괴물이	-10088
▁교회에	-10089
▁구꺼비	-10090
▁구두로	-10091
▁구하셨	-10092
▁구해야	-10093
▁귀엽대	-10094
▁귀찮게	-10095
▁균형이	-10096
▁그때는	-10097
▁그랬을	-10098
▁그런건	-10099
▁개째	-10100
▁경과	-10101
▁경조	-10102
▁난다	-10103
▁넘을	-10104
▁멋을	-10105
▁번은	-10106
▁볼링	-10107
▁붙는	-10108
▁손이	-10109
▁순진	-10110
▁졌어	-10111
▁질거	-10112
▁청강	-10113
▁헌팅	-10114
▁환경	-10115
는건가	-10116
음이나	-10117
해보고	-10118
▁갑시다	-10119
▁관절염	-10120
▁그런게	-10121
▁그만큰	-10122
▁그분을	-10123
▁기나긴	-10124
▁기대도	-10125
▁기대돼	-10126
▁기대로	-10127
▁기대에	-10128
▁기분만	-10129
▁기분을	-10130
▁기억할	-10131
▁기운낼	-10132
▁긴장되	-10133
▁길러도	-10134
▁김치도	-10135
▁까먹어	-10136
▁깨닫게	-10137
▁깨지고	-10138
▁꼬르륵	-10139
▁꼬시지	-10140
▁꼰대가	-10141
▁꽃게탕	-10142
▁꽃꽂이	-10143
▁꾸는데	-10144
▁꾸준한	-10145
▁꿈같은	-10146
▁꿈꾸던	-10147
▁꿈이었	-10148
▁꿈처럼	-10149
▁꿨는데	-10150
▁꿨는지	-10151
▁끝나길	-10152
▁끝내긴	-10153
▁끝이보	-10154
▁끼세요	-10155
▁낌새가	-10156
▁나가고	-10157
▁나가도	-10158
▁나가요	-10159
▁나네요	-10160
▁나대로	-10161
▁나라를	-10162
▁나쁘게	-10163
▁나아요	-10164
▁나오지	-10165
▁나온거	-10166
▁나와야	-10167
▁나이를	-10168
▁난방이	-10169
▁날까지	-10170
▁날들이	-10171
▁날씨에	-10172
▁날이야	-10173
▁날인가	-10174
▁남겠죠	-10175
▁남동생	-10176
▁남보다	-10177
▁남았어	-10178
▁남이죠	-10179
▁남자로	-10180
▁남잔데	-10181
▁남친과	-10182
▁남친의	-10183
▁났는지	-10184
▁났으면	-10185
▁내거나	-10186
▁내냐구	-10187
▁내년이	-10188
▁내딛으	-10189
▁내려놔	-10190
▁내려올	-10191
▁내릴까	-10192
▁내봐요	-10193
▁내일의	-10194
▁너무힘	-10195
▁넘었어	-10196
▁노래들	-10197
▁노래로	-10198
▁노래요	-10199
▁금값	-10200
▁긴여	-10201
▁까봐	-10202
▁몇명	-10203
▁빡빡	-10204
▁빨라	-10205
▁뿐이	-10206
▁삶이	-10207
▁솔솔	-10208
▁숨한	-10209
▁식상	-10210
▁온천	-10211
▁청구	-10212
▁친추	-10213
▁크네	-10214
▁태몽	-10215
▁향한	-10216
달만에	-10217
보이네	-10218
사람을	-10219
스럽다	-10220
▁가져도	-10221
▁가지를	-10222
▁건강은	-10223
▁격식은	-10224
▁귀찮네	-10225
▁그리웠	-10226
▁끝이네	-10227
▁나가서	-10228
▁나쁜데	-10229
▁날이네	-10230
▁노력이	-10231
▁노력해	-10232
▁놀까요	-10233
▁놀러가	-10234
▁놀리는	-10235
▁높겠죠	-10236
▁높으면	-10237
▁놓쳐서	-10238
▁놓쳤다	-10239
▁누구니	-10240
▁누구를	-10241
▁누룽지	-10242
▁눅눅해	-10243
▁눈사람	-10244
▁눈살이	-10245
▁눈에도	-10246
▁뉴스는	-10247
▁느낌을	-10248
▁늦어요	-10249
▁다가온	-10250
▁다같이	-10251
▁다녀와	-10252
▁다니고	-10253
▁다른걸	-10254
▁다음날	-10255
▁닥쳐올	-10256
▁단수가	-10257
▁단점을	-10258
▁달라져	-10259
▁달에는	-10260
▁답례품	-10261
▁답이야	-10262
▁답일까	-10263
▁당번을	-10264
▁당신과	-10265
▁당하고	-10266
▁당해요	-10267
▁당황할	-10268
▁대답이	-10269
▁대부분	-10270
▁대하고	-10271
▁대하면	-10272
▁대학교	-10273
▁대화도	-10274
▁대화한	-10275
▁더없이	-10276
▁데려가	-10277
▁도예요	-10278
▁도와준	-10279
▁도자기	-10280
▁도전을	-10281
▁돈보다	-10282
▁돌리고	-10283
▁돌아간	-10284
▁돌아섰	-10285
▁돌아온	-10286
▁동문서	-10287
▁동물원	-10288
▁동성을	-10289
▁동안의	-10290
▁됐나요	-10291
▁됐다고	-10292
▁되기가	-10293
▁되나요	-10294
▁되지요	-10295
▁된다는	-10296
▁둘만의	-10297
▁뒀네요	-10298
▁드네요	-10299
▁40	-10300
▁강박	-10301
▁네가	-10302
▁듣니	-10303
▁듣지	-10304
▁면세	-10305
▁쌓는	-10306
▁작별	-10307
▁졸게	-10308
▁짧을	-10309
▁초조	-10310
▁티끌	-10311
▁티나	-10312
▁폭풍	-10313
끝났네	-10314
소리가	-10315
▁가야죠	-10316
▁건조기	-10317
▁고생이	-10318
▁공감을	-10319
▁꽃으로	-10320
▁남편을	-10321
▁되는줄	-10322
▁드시지	-10323
▁들겠지	-10324
▁들어야	-10325
▁들지만	-10326
▁등으로	-10327
▁디저트	-10328
▁따돌림	-10329
▁따르기	-10330
▁따지는	-10331
▁땅만큼	-10332
▁때라고	-10333
▁때리고	-10334
▁떠나요	-10335
▁떠나지	-10336
▁떠는거	-10337
▁떠세요	-10338
▁떠올라	-10339
▁떠올려	-10340
▁떨기는	-10341
▁떨리는	-10342
▁떨면서	-10343
▁떨어요	-10344
▁떨어진	-10345
▁뜨겁게	-10346
▁뜻밖의	-10347
▁로그인	-10348
▁리드를	-10349
▁마시러	-10350
▁마시며	-10351
▁마치길	-10352
▁만나보	-10353
▁만날땐	-10354
▁만남을	-10355
▁만남의	-10356
▁만들까	-10357
▁만큼만	-10358
▁만하죠	-10359
▁많다고	-10360
▁많아도	-10361
▁말문이	-10362
▁말보다	-10363
▁말씀이	-10364
▁말씀해	-10365
▁말았네	-10366
▁말자고	-10367
▁말하기	-10368
▁말해봐	-10369
▁맘대로	-10370
▁맛없어	-10371
▁맛있고	-10372
▁맛있죠	-10373
▁망해도	-10374
▁맞겠지	-10375
▁맞다고	-10376
▁맞아서	-10377
▁맞았어	-10378
▁맞출까	-10379
▁매세요	-10380
▁맥주병	-10381
▁머리를	-10382
▁머릿결	-10383
▁먹고는	-10384
▁먹는게	-10385
▁먹어서	-10386
▁먹어요	-10387
▁먹었니	-10388
▁먹을게	-10389
▁먼저일	-10390
▁멋있게	-10391
▁멋있어	-10392
▁멋있죠	-10393
▁모기가	-10394
▁모두가	-10395
▁모르니	-10396
▁모르죠	-10397
▁모발이	-10398
▁모여요	-10399
▁꽃을	-10400
▁담담	-10401
▁뒤따	-10402
▁메인	-10403
▁병이	-10404
▁빌렸	-10405
▁삐져	-10406
▁양이	-10407
▁출국	-10408
▁출발	-10409
▁흔한	-10410
버려요	-10411
봐주는	-10412
어주는	-10413
하려구	-10414
해줘요	-10415
▁감기일	-10416
▁걸려요	-10417
▁것같아	-10418
▁것이요	-10419
▁겠지요	-10420
▁고와야	-10421
▁구여친	-10422
▁극복한	-10423
▁끝나네	-10424
▁끝나서	-10425
▁나을가	-10426
▁내려요	-10427
▁냄새나	-10428
▁다녀야	-10429
▁디져트	-10430
▁떨려요	-10431
▁마련의	-10432
▁몇시간	-10433
▁몇일째	-10434
▁목적은	-10435
▁목표가	-10436
▁몰랐던	-10437
▁못난거	-10438
▁못잊을	-10439
▁못자고	-10440
▁못하게	-10441
▁못하네	-10442
▁못하죠	-10443
▁무게를	-10444
▁무궁무	-10445
▁무뎌져	-10446
▁무뎌진	-10447
▁무뚝뚝	-10448
▁무리가	-10449
▁무서움	-10450
▁무섭죠	-10451
▁문자가	-10452
▁문자를	-10453
▁뭐부터	-10454
▁뭘해도	-10455
▁미련없	-10456
▁미화되	-10457
▁민감한	-10458
▁믿는데	-10459
▁밀당일	-10460
▁바꾸면	-10461
▁바다는	-10462
▁바람난	-10463
▁바람좀	-10464
▁바보는	-10465
▁바보지	-10466
▁바보짓	-10467
▁바쁘네	-10468
▁바쁠때	-10469
▁바지가	-10470
▁반가울	-10471
▁반대가	-10472
▁반했어	-10473
▁받겠지	-10474
▁받아도	-10475
▁받아요	-10476
▁받아줄	-10477
▁받지도	-10478
▁발달된	-10479
▁밥이나	-10480
▁방들이	-10481
▁배에서	-10482
▁배우실	-10483
▁버렸다	-10484
▁버티지	-10485
▁벌수록	-10486
▁벌어요	-10487
▁베였어	-10488
▁변하니	-10489
▁변하면	-10490
▁변한것	-10491
▁보내실	-10492
▁보라고	-10493
▁보안상	-10494
▁보여도	-10495
▁보여드	-10496
▁보여서	-10497
▁복잡해	-10498
▁복제가	-10499
▁높은	-10500
▁봤나	-10501
▁빼도	-10502
▁숨쉬	-10503
▁써야	-10504
▁접질	-10505
▁폰겜	-10506
▁향기	-10507
보이는	-10508
사이가	-10509
하려나	-10510
▁기회일	-10511
▁놀기만	-10512
▁놀아서	-10513
▁보기만	-10514
▁봤으면	-10515
▁부담돼	-10516
▁부담을	-10517
▁부담이	-10518
▁부딪혀	-10519
▁부었어	-10520
▁부작용	-10521
▁북치기	-10522
▁분담을	-10523
▁분배를	-10524
▁분야를	-10525
▁분출할	-10526
▁불만이	-10527
▁불행을	-10528
▁붙잡을	-10529
▁블록체	-10530
▁비교돼	-10531
▁비밀로	-10532
▁비밀이	-10533
▁비싸다	-10534
▁비싸죠	-10535
▁비용은	-10536
▁비참한	-10537
▁비타민	-10538
▁비틀어	-10539
▁빌게요	-10540
▁빨리감	-10541
▁빵꾸난	-10542
▁빼니까	-10543
▁뻔하다	-10544
▁뿌듯할	-10545
▁사과를	-10546
▁사귀게	-10547
▁사귄다	-10548
▁사귄지	-10549
▁사랑꾼	-10550
▁사야돼	-10551
▁사이도	-10552
▁사이라	-10553
▁사이트	-10554
▁사진에	-10555
▁사진이	-10556
▁사투리	-10557
▁산이네	-10558
▁살기가	-10559
▁살려도	-10560
▁살려줘	-10561
▁살아도	-10562
▁상관이	-10563
▁상대와	-10564
▁상대의	-10565
▁상상은	-10566
▁상상을	-10567
▁상처준	-10568
▁상해요	-10569
▁샐러드	-10570
▁생각의	-10571
▁생겼대	-10572
▁생기죠	-10573
▁생생한	-10574
▁생활이	-10575
▁생활패	-10576
▁샤워를	-10577
▁서적을	-10578
▁선물할	-10579
▁설레게	-10580
▁설레면	-10581
▁설레발	-10582
▁설레서	-10583
▁설레지	-10584
▁성별은	-10585
▁성분이	-10586
▁성숙한	-10587
▁성향이	-10588
▁세다고	-10589
▁세상의	-10590
▁세우고	-10591
▁세탁소	-10592
▁센스가	-10593
▁소개해	-10594
▁소식에	-10595
▁소식을	-10596
▁소심한	-10597
▁소원이	-10598
▁소중히	-10599
▁골반	-10600
▁낙엽	-10601
▁독서	-10602
▁독학	-10603
▁삼재	-10604
▁삼주	-10605
▁특히	-10606
백한다	-10607
보기만	-10608
스리스	-10609
▁겉모습	-10610
▁경우는	-10611
▁군대를	-10612
▁까먹고	-10613
▁독서와	-10614
▁두근두	-10615
▁뜻으로	-10616
▁맞춰줄	-10617
▁먹을래	-10618
▁못해본	-10619
▁미치네	-10620
▁미치지	-10621
▁방심한	-10622
▁배려가	-10623
▁변한게	-10624
▁사줄까	-10625
▁새치가	-10626
▁생기기	-10627
▁생기지	-10628
▁서운한	-10629
▁속도가	-10630
▁속으로	-10631
▁손길이	-10632
▁손톱이	-10633
▁손해배	-10634
▁솔직히	-10635
▁쇼핑은	-10636
▁쇼핑을	-10637
▁수도가	-10638
▁수십번	-10639
▁수없이	-10640
▁수영장	-10641
▁순간은	-10642
▁순간을	-10643
▁순간의	-10644
▁술기운	-10645
▁술이야	-10646
▁술자리	-10647
▁숨기는	-10648
▁쉬려고	-10649
▁쉬었다	-10650
▁쉬운게	-10651
▁쉬운데	-10652
▁쉽지는	-10653
▁슈퍼문	-10654
▁스키탈	-10655
▁스킨쉽	-10656
▁스테끼	-10657
▁슬픔에	-10658
▁시간의	-10659
▁시간적	-10660
▁시기였	-10661
▁시럽을	-10662
▁시선이	-10663
▁시원할	-10664
▁시작과	-10665
▁시작도	-10666
▁시작함	-10667
▁시켜줘	-10668
▁시키지	-10669
▁식비가	-10670
▁식어서	-10671
▁식으로	-10672
▁식이요	-10673
▁신기한	-10674
▁신을까	-10675
▁실력이	-10676
▁실망을	-10677
▁실수한	-10678
▁실행에	-10679
▁실험실	-10680
▁싫어할	-10681
▁싫어해	-10682
▁싫으면	-10683
▁싫지는	-10684
▁심하네	-10685
▁심하면	-10686
▁싶었던	-10687
▁싶은거	-10688
▁싸세요	-10689
▁싸움이	-10690
▁쌍커풀	-10691
▁쌓였어	-10692
▁썸부터	-10693
▁썸타다	-10694
▁쓰세요	-10695
▁쓰이네	-10696
▁쓰자고	-10697
▁아까운	-10698
▁아깝다	-10699
▁났네	-10700
▁났어	-10701
▁팀플	-10702
▁팔뚝	-10703
▁팔찌	-10704
합시다	-10705
▁가리면	-10706
▁감사한	-10707
▁결단은	-10708
▁경향이	-10709
▁경험은	-10710
▁과정을	-10711
▁과정일	-10712
▁글자만	-10713
▁기운을	-10714
▁꼬리가	-10715
▁놀이터	-10716
▁다이렉	-10717
▁대놓고	-10718
▁대인배	-10719
▁맛집을	-10720
▁먹었다	-10721
▁무너짐	-10722
▁반장을	-10723
▁발표는	-10724
▁버려진	-10725
▁빌리면	-10726
▁사갈까	-10727
▁쉬시길	-10728
▁신기해	-10729
▁싫은가	-10730
▁써놓고	-10731
▁아니긴	-10732
▁아니셨	-10733
▁아닌가	-10734
▁아닌건	-10735
▁아들을	-10736
▁아련한	-10737
▁아세요	-10738
▁아쉬움	-10739
▁아이구	-10740
▁아이는	-10741
▁아이라	-10742
▁아이를	-10743
▁아침밥	-10744
▁아파서	-10745
▁아파트	-10746
▁아프면	-10747
▁아프죠	-10748
▁아픈데	-10749
▁악몽과	-10750
▁악몽을	-10751
▁악수를	-10752
▁안나와	-10753
▁안돼나	-10754
▁안되면	-10755
▁안되서	-10756
▁안아서	-10757
▁안읽씹	-10758
▁안주랑	-10759
▁안하기	-10760
▁안하려	-10761
▁안한다	-10762
▁안해서	-10763
▁않겠죠	-10764
▁않다고	-10765
▁않다면	-10766
▁않았기	-10767
▁않은데	-10768
▁알려주	-10769
▁알아내	-10770
▁알아요	-10771
▁알아주	-10772
▁알아줄	-10773
▁알지만	-10774
▁압니다	-10775
▁앞이나	-10776
▁애기가	-10777
▁애절한	-10778
▁애정이	-10779
▁액션은	-10780
▁야근이	-10781
▁약먹기	-10782
▁약이긴	-10783
▁양다리	-10784
▁양면과	-10785
▁양식을	-10786
▁얘기가	-10787
▁어디다	-10788
▁어디를	-10789
▁어떨때	-10790
▁어떻해	-10791
▁어른이	-10792
▁어울릴	-10793
▁어이가	-10794
▁어장을	-10795
▁어제가	-10796
▁어쨌든	-10797
▁어쩌죠	-10798
▁어플에	-10799
▁끄고	-10800
▁줬어	-10801
▁트인	-10802
▁트집	-10803
감상이	-10804
해줬어	-10805
▁가벼움	-10806
▁가치와	-10807
▁결심이	-10808
▁그랬지	-10809
▁깊었을	-10810
▁꺼지기	-10811
▁끄세요	-10812
▁내리기	-10813
▁누군가	-10814
▁답장해	-10815
▁딸기가	-10816
▁무섭고	-10817
▁미래의	-10818
▁발전할	-10819
▁방면에	-10820
▁비가오	-10821
▁사실을	-10822
▁사정을	-10823
▁생긴거	-10824
▁속상한	-10825
▁속상할	-10826
▁신혼집	-10827
▁썼는데	-10828
▁썼다가	-10829
▁어플은	-10830
▁언니가	-10831
▁언어도	-10832
▁언제가	-10833
▁얼굴만	-10834
▁얼었어	-10835
▁엄마께	-10836
▁엄청나	-10837
▁없거나	-10838
▁없다가	-10839
▁없었던	-10840
▁없었어	-10841
▁없이도	-10842
▁여기는	-10843
▁여기만	-10844
▁여러번	-10845
▁여유는	-10846
▁여자들	-10847
▁여자야	-10848
▁여자에	-10849
▁여자의	-10850
▁여친을	-10851
▁여행이	-10852
▁연락과	-10853
▁연락올	-10854
▁연락하	-10855
▁연애끝	-10856
▁연애만	-10857
▁연애할	-10858
▁영상을	-10859
▁영화나	-10860
▁영화는	-10861
▁예감이	-10862
▁예민함	-10863
▁예뻐해	-10864
▁예식장	-10865
▁예의는	-10866
▁예측할	-10867
▁오나봐	-10868
▁오는데	-10869
▁오는지	-10870
▁오늘밤	-10871
▁오래걸	-10872
▁오래전	-10873
▁오랜만	-10874
▁오르고	-10875
▁오빠들	-10876
▁오빠랑	-10877
▁오지마	-10878
▁옥상에	-10879
▁온다면	-10880
▁온전한	-10881
▁올려봐	-10882
▁옵니다	-10883
▁완벽할	-10884
▁외모에	-10885
▁외제차	-10886
▁욕하는	-10887
▁욕했어	-10888
▁용서를	-10889
▁우리를	-10890
▁우리반	-10891
▁우리의	-10892
▁우연을	-10893
▁운명도	-10894
▁운명을	-10895
▁운명의	-10896
▁울었네	-10897
▁울었어	-10898
▁움츠러	-10899
▁갚고	-10900
▁갚을	-10901
▁걔도	-10902
▁걔랑	-10903
▁냐에	-10904
▁넣고	-10905
▁섭섭	-10906
▁쓴지	-10907
▁죄는	-10908
▁죄송	-10909
▁컴터	-10910
불가한	-10911
▁가까이	-10912
▁그것은	-10913
▁깨어진	-10914
▁나올까	-10915
▁남았길	-10916
▁듭니다	-10917
▁맛을거	-10918
▁받으시	-10919
▁분명한	-10920
▁비슷한	-10921
▁비슷해	-10922
▁사전도	-10923
▁사회를	-10924
▁상태를	-10925
▁수요일	-10926
▁시계줄	-10927
▁신나게	-10928
▁쓴만큼	-10929
▁알았다	-10930
▁야근해	-10931
▁어장의	-10932
▁원망과	-10933
▁월급만	-10934
▁웹툰이	-10935
▁위기야	-10936
▁위축된	-10937
▁위치가	-10938
▁위험할	-10939
▁유기견	-10940
▁유료로	-10941
▁유명한	-10942
▁은근히	-10943
▁음악을	-10944
▁음악이	-10945
▁응시는	-10946
▁응원해	-10947
▁의미는	-10948
▁의사가	-10949
▁의지할	-10950
▁이길이	-10951
▁이남자	-10952
▁이라고	-10953
▁이러고	-10954
▁이런게	-10955
▁이별과	-10956
▁이사가	-10957
▁이사갈	-10958
▁이상할	-10959
▁이시간	-10960
▁이용당	-10961
▁이용할	-10962
▁이용해	-10963
▁이치죠	-10964
▁이혼이	-10965
▁익숙해	-10966
▁인내의	-10967
▁인복이	-10968
▁인사를	-10969
▁인상을	-10970
▁인연을	-10971
▁인연인	-10972
▁인정받	-10973
▁인정은	-10974
▁인형뽑	-10975
▁일기를	-10976
▁일상을	-10977
▁일시적	-10978
▁일어난	-10979
▁일이길	-10980
▁일이랑	-10981
▁일정을	-10982
▁일하고	-10983
▁일하시	-10984
▁일해요	-10985
▁읽는다	-10986
▁읽히나	-10987
▁있다니	-10988
▁있대요	-10989
▁있지는	-10990
▁잊겠어	-10991
▁잊기는	-10992
▁잊기로	-10993
▁잊어볼	-10994
▁잊어요	-10995
▁자격은	-10996
▁자기개	-10997
▁자기를	-10998
▁자꾸만	-10999
▁깎인	-11000
▁뛰는	-11001
▁으악	-11002
일수도	-11003
▁가운데	-11004
▁건데요	-11005
▁과일을	-11006
▁깎아요	-11007
▁나왔길	-11008
▁남겨진	-11009
▁다치지	-11010
▁대충한	-11011
▁되가네	-11012
▁둘이서	-11013
▁마다할	-11014
▁막말을	-11015
▁막말이	-11016
▁만족을	-11017
▁만족해	-11018
▁많데요	-11019
▁멈추고	-11020
▁무리에	-11021
▁설렘을	-11022
▁소문은	-11023
▁소문일	-11024
▁안전이	-11025
▁어린데	-11026
▁여기다	-11027
▁오시면	-11028
▁올라갈	-11029
▁음식이	-11030
▁자라도	-11031
▁자르는	-11032
▁자리에	-11033
▁자세가	-11034
▁자세요	-11035
▁자연의	-11036
▁자유가	-11037
▁자체는	-11038
▁자체에	-11039
▁작동이	-11040
▁잔하기	-11041
▁잘가요	-11042
▁잘라요	-11043
▁잘못한	-11044
▁잘살고	-11045
▁잘해주	-11046
▁잠기는	-11047
▁잠깐씩	-11048
▁잡혔어	-11049
▁잤더니	-11050
▁장난친	-11051
▁장소에	-11052
▁재가입	-11053
▁재미로	-11054
▁재밌대	-11055
▁재밌죠	-11056
▁재회후	-11057
▁저라도	-11058
▁저와의	-11059
▁저처럼	-11060
▁적성에	-11061
▁적응을	-11062
▁적응해	-11063
▁전공에	-11064
▁전부인	-11065
▁전세계	-11066
▁전인데	-11067
▁전하면	-11068
▁전해졌	-11069
▁전해질	-11070
▁전화할	-11071
▁정도를	-11072
▁정도면	-11073
▁정리는	-11074
▁정리도	-11075
▁정으로	-11076
▁정해서	-11077
▁조금은	-11078
▁조금의	-11079
▁조심할	-11080
▁조절은	-11081
▁존댓말	-11082
▁존중된	-11083
▁종목을	-11084
▁종아리	-11085
▁좋거나	-11086
▁좋다가	-11087
▁좋아졌	-11088
▁좋았어	-11089
▁좋은건	-11090
▁좋은점	-11091
▁주고도	-11092
▁주량은	-11093
▁주름도	-11094
▁죽는게	-11095
▁죽었다	-11096
▁준비는	-11097
▁준비해	-11098
▁줄이고	-11099
▁겁이	-11100
▁급해	-11101
▁냈어	-11102
▁녹차	-11103
▁놈의	-11104
▁닮아	-11105
▁띄길	-11106
▁뽑아	-11107
▁찔러	-11108
박치기	-11109
주려는	-11110
주정도	-11111
지마요	-11112
하달까	-11113
하던게	-11114
▁과식은	-11115
▁구분이	-11116
▁급하게	-11117
▁끝냈어	-11118
▁닮아서	-11119
▁되도록	-11120
▁두분이	-11121
▁목표는	-11122
▁밀당을	-11123
▁보험료	-11124
▁부딪히	-11125
▁부자님	-11126
▁솔로야	-11127
▁심하대	-11128
▁안오면	-11129
▁애인이	-11130
▁애정의	-11131
▁어째서	-11132
▁이뤄질	-11133
▁입학식	-11134
▁줄이야	-11135
▁중간을	-11136
▁중간이	-11137
▁중간인	-11138
▁중간중	-11139
▁중고서	-11140
▁중독인	-11141
▁중요해	-11142
▁중이야	-11143
▁중인거	-11144
▁쥐꼬리	-11145
▁쥬스는	-11146
▁즐기면	-11147
▁증거라	-11148
▁지금이	-11149
▁지나야	-11150
▁지려고	-11151
▁지식이	-11152
▁지압을	-11153
▁지우는	-11154
▁지울까	-11155
▁지워야	-11156
▁지쳤을	-11157
▁지치고	-11158
▁지켜만	-11159
▁직장과	-11160
▁직장이	-11161
▁진실로	-11162
▁진실을	-11163
▁진전이	-11164
▁질리게	-11165
▁질리지	-11166
▁질린다	-11167
▁집밖에	-11168
▁집어서	-11169
▁집에만	-11170
▁집주인	-11171
▁집착일	-11172
▁짝남을	-11173
▁짝남의	-11174
▁짝녀의	-11175
▁짧아요	-11176
▁짧으면	-11177
▁째깍째	-11178
▁쪼그만	-11179
▁찍었어	-11180
▁찔까봐	-11181
▁차가운	-11182
▁차라도	-11183
▁차례인	-11184
▁차리는	-11185
▁차별을	-11186
▁차용증	-11187
▁차이일	-11188
▁차인후	-11189
▁차트를	-11190
▁착해서	-11191
▁참다가	-11192
▁찾아갔	-11193
▁찾아서	-11194
▁찾아야	-11195
▁찾아왔	-11196
▁채우길	-11197
▁책임이	-11198
▁챙겨줘	-11199
▁AB	-11200
▁땡겨	-11201
▁젖어	-11202
▁효율	-11203
버려서	-11204
육아가	-11205
이스를	-11206
▁교복이	-11207
▁내리길	-11208
▁노후가	-11209
▁놓쳤어	-11210
▁누굴까	-11211
▁늙어가	-11212
▁다쳤어	-11213
▁돌보길	-11214
▁동성애	-11215
▁되돌릴	-11216
▁땀난다	-11217
▁멀리서	-11218
▁메모로	-11219
▁반가워	-11220
▁받으신	-11221
▁보낼까	-11222
▁비난만	-11223
▁빼놓지	-11224
▁성장할	-11225
▁수다를	-11226
▁수상해	-11227
▁순수한	-11228
▁신뢰가	-11229
▁실내로	-11230
▁아플까	-11231
▁안정을	-11232
▁어머나	-11233
▁외모는	-11234
▁웬수죠	-11235
▁위대한	-11236
▁이직을	-11237
▁절제가	-11238
▁젖었어	-11239
▁직구로	-11240
▁진도가	-11241
▁참견해	-11242
▁처음만	-11243
▁처음은	-11244
▁청춘이	-11245
▁쳐다봄	-11246
▁쳐다봐	-11247
▁초록초	-11248
▁최우선	-11249
▁추억도	-11250
▁추억만	-11251
▁추억을	-11252
▁추워서	-11253
▁축하할	-11254
▁춘곤증	-11255
▁출근길	-11256
▁출발을	-11257
▁춥다고	-11258
▁춥지도	-11259
▁충분할	-11260
▁충전기	-11261
▁충전도	-11262
▁충전할	-11263
▁취미와	-11264
▁취업에	-11265
▁취직이	-11266
▁취하기	-11267
▁취향을	-11268
▁취향이	-11269
▁친구야	-11270
▁친구일	-11271
▁친절한	-11272
▁친하게	-11273
▁카드가	-11274
▁카드값	-11275
▁카페에	-11276
▁커지는	-11277
▁커피도	-11278
▁커피를	-11279
▁커피에	-11280
▁컨트롤	-11281
▁케빈과	-11282
▁케익을	-11283
▁크겠죠	-11284
▁크기가	-11285
▁키우기	-11286
▁타세요	-11287
▁태도가	-11288
▁태도에	-11289
▁태어날	-11290
▁터질거	-11291
▁턱시도	-11292
▁텀블러	-11293
▁통하는	-11294
▁통해서	-11295
▁통화를	-11296
▁투자한	-11297
▁틀어도	-11298
▁티나요	-11299
▁땅을	-11300
▁색감	-11301
▁앉아	-11302
▁짬뽕	-11303
▁캬아	-11304
▁탄생	-11305
▁탔다	-11306
▁탔던	-11307
하우스	-11308
▁15%	-11309
▁갈만한	-11310
▁공개해	-11311
▁광고가	-11312
▁끓이는	-11313
▁낙이죠	-11314
▁남는건	-11315
▁낮잠을	-11316
▁대리님	-11317
▁될수있	-11318
▁들이댔	-11319
▁땀나네	-11320
▁똑같지	-11321
▁말로만	-11322
▁매순간	-11323
▁무소음	-11324
▁물증이	-11325
▁별다른	-11326
▁비싼데	-11327
▁사셔야	-11328
▁상의도	-11329
▁쉬셔야	-11330
▁쌓인다	-11331
▁아깝지	-11332
▁안돌아	-11333
▁의자를	-11334
▁잘돼야	-11335
▁조건이	-11336
▁죽인다	-11337
▁중이래	-11338
▁체육복	-11339
▁탔는데	-11340
▁티내면	-11341
▁판단은	-11342
▁편인데	-11343
▁편지도	-11344
▁편지를	-11345
▁편하네	-11346
▁편하죠	-11347
▁편한거	-11348
▁편해도	-11349
▁편해요	-11350
▁편해진	-11351
▁평소의	-11352
▁포기안	-11353
▁포장이	-11354
▁포커페	-11355
▁폭력은	-11356
▁폰게임	-11357
▁표정이	-11358
▁표현에	-11359
▁표현할	-11360
▁풀려고	-11361
▁풀렸죠	-11362
▁풀어요	-11363
▁프사가	-11364
▁프사랑	-11365
▁프사로	-11366
▁프사를	-11367
▁프사에	-11368
▁피곤할	-11369
▁피나는	-11370
▁피하지	-11371
▁피해자	-11372
▁필수는	-11373
▁필연이	-11374
▁필요하	-11375
▁핑계로	-11376
▁핑계를	-11377
▁하나만	-11378
▁하나의	-11379
▁하는걸	-11380
▁하늘은	-11381
▁하니까	-11382
▁하셔도	-11383
▁하셔야	-11384
▁하시면	-11385
▁학교갈	-11386
▁학기를	-11387
▁학생이	-11388
▁학원에	-11389
▁한계야	-11390
▁한계에	-11391
▁한때는	-11392
▁한마디	-11393
▁한번에	-11394
▁한번의	-11395
▁한사람	-11396
▁한적한	-11397
▁할지도	-11398
▁해결해	-11399
▁곱씹	-11400
▁곱창	-11401
▁광탈	-11402
▁찼던	-11403
▁황사	-11404
거같네	-11405
세포에	-11406
주저리	-11407
▁감당이	-11408
▁곱다고	-11409
▁눈썹이	-11410
▁득템해	-11411
▁로봇도	-11412
▁베풀되	-11413
▁부부가	-11414
▁사수가	-11415
▁성덕이	-11416
▁소액이	-11417
▁소유가	-11418
▁슈퍼우	-11419
▁쌩얼도	-11420
▁아물길	-11421
▁알뜰한	-11422
▁요구가	-11423
▁욕심에	-11424
▁욕심의	-11425
▁이뻐서	-11426
▁이뻐요	-11427
▁이뻐해	-11428
▁인공눈	-11429
▁전세비	-11430
▁즐겁죠	-11431
▁증오로	-11432
▁지치게	-11433
▁지치면	-11434
▁지키기	-11435
▁진지한	-11436
▁철벽치	-11437
▁충격이	-11438
▁침대와	-11439
▁칼로리	-11440
▁코스를	-11441
▁포근포	-11442
▁해보면	-11443
▁해봐도	-11444
▁해줬어	-11445
▁핸드백	-11446
▁했나요	-11447
▁행동을	-11448
▁행복의	-11449
▁행실을	-11450
▁행운일	-11451
▁향이죠	-11452
▁향하고	-11453
▁허례허	-11454
▁허전함	-11455
▁허전해	-11456
▁헤어졋	-11457
▁헬스장	-11458
▁헷갈릴	-11459
▁현금만	-11460
▁현금이	-11461
▁현실에	-11462
▁현실은	-11463
▁혼났어	-11464
▁혼내는	-11465
▁혼자있	-11466
▁혼전순	-11467
▁화가나	-11468
▁화나고	-11469
▁화내는	-11470
▁화냈어	-11471
▁화요일	-11472
▁화장은	-11473
▁화장을	-11474
▁화풀이	-11475
▁확신을	-11476
▁환승이	-11477
▁환심을	-11478
▁활기찬	-11479
▁활용에	-11480
▁홧김에	-11481
▁회복할	-11482
▁회사랑	-11483
▁회사를	-11484
▁후덜덜	-11485
▁후회돼	-11486
▁휴식에	-11487
▁휴양지	-11488
▁흐려지	-11489
▁흐르면	-11490
▁흘렀네	-11491
▁흘렸어	-11492
▁힘내려	-11493
▁힘드시	-11494
▁힘드신	-11495
▁힘든가	-11496
▁힘들것	-11497
▁힘들긴	-11498
▁힘들때	-11499
▁빚이	-11500
▁콕콕	-11501
▁플라	-11502
노래방	-11503
드레스	-11504
으려니	-11505
▁가스불	-11506
▁간식도	-11507
▁감수성	-11508
▁갚아나	-11509
▁개념이	-11510
▁구분짓	-11511
▁구분해	-11512
▁구속해	-11513
▁꼼꼼한	-11514
▁꿈같다	-11515
▁나날을	-11516
▁누나가	-11517
▁능력만	-11518
▁떡졌어	-11519
▁떨쳐낼	-11520
▁막히네	-11521
▁바닥을	-11522
▁받았다	-11523
▁사다리	-11524
▁잘하실	-11525
▁쪽지를	-11526
▁체질이	-11527
▁총회에	-11528
▁켜세요	-11529
▁탓인지	-11530
▁퍼가요	-11531
▁평가원	-11532
▁평온해	-11533
▁피우는	-11534
▁한몸이	-11535
▁형편에	-11536
▁화내게	-11537
▁화내지	-11538
▁힘들만	-11539
▁힘들줄	-11540
▁힘차게	-11541
간이예요	-11542
개월간의	-11543
개월동안	-11544
개월이네	-11545
거같은데	-11546
과적일까	-11547
궈보세요	-11548
기사님들	-11549
났습니다	-11550
다니면서	-11551
됐습니다	-11552
려나봐요	-11553
려합니다	-11554
록하네요	-11555
리는것도	-11556
린다는게	-11557
만이라도	-11558
메보세요	-11559
버려야지	-11560
버리시길	-11561
보고싶어	-11562
생각나네	-11563
쇼핑에서	-11564
수있어요	-11565
수있을까	-11566
스러우면	-11567
스타일이	-11568
식이에요	-11569
야할지도	-11570
어보아요	-11571
어야겠다	-11572
었는가를	-11573
여행이죠	-11574
올랐다가	-11575
으로부터	-11576
이너에게	-11577
이었나봐	-11578
일꺼에요	-11579
일째인데	-11580
적이어도	-11581
졌습니다	-11582
지우겠네	-11583
철과일이	-11584
추위래요	-11585
푸려지죠	-11586
하다면요	-11587
하려니까	-11588
하셨네요	-11589
하지만은	-11590
해당하기	-11591
해드세요	-11592
해야겠죠	-11593
해야하고	-11594
해야할듯	-11595
해야해요	-11596
해주는게	-11597
해주면서	-11598
해주지는	-11599
▁굴면	-11600
▁눌러	-11601
▁라인	-11602
▁맴찢	-11603
▁맺는	-11604
▁윗집	-11605
▁품어	-11606
▁험해	-11607
지못한	-11608
▁값이죠	-11609
▁게스트	-11610
▁고가의	-11611
▁날에만	-11612
▁납니다	-11613
▁달력에	-11614
▁동아리	-11615
▁물건들	-11616
▁바늘과	-11617
▁본받을	-11618
▁부르지	-11619
▁사주를	-11620
▁살만해	-11621
▁상메가	-11622
▁설명이	-11623
▁세우지	-11624
▁손맛이	-11625
▁시대는	-11626
▁시도해	-11627
▁식물을	-11628
▁심부름	-11629
▁왜그래	-11630
▁외부의	-11631
▁웃겨봐	-11632
▁은행에	-11633
▁이랬다	-11634
▁작아져	-11635
▁저랬다	-11636
▁진리죠	-11637
▁창문을	-11638
▁천하를	-11639
▁첫눈에	-11640
▁체력에	-11641
▁치매가	-11642
▁치우고	-11643
▁컸으면	-11644
▁특징은	-11645
▁현명한	-11646
끄러워서	-11647
데이트가	-11648
했어야죠	-11649
했었는데	-11650
화식물도	-11651
▁....	-11652
▁가게부를	-11653
▁가게에서	-11654
▁가능성을	-11655
▁가능한지	-11656
▁가니까요	-11657
▁가라앉혀	-11658
▁가봅시다	-11659
▁가야겠다	-11660
▁가야겠지	-11661
▁가장해서	-11662
▁가져오면	-11663
▁가족같은	-11664
▁가족관계	-11665
▁가족끼리	-11666
▁가족에게	-11667
▁각질제거	-11668
▁간단하고	-11669
▁간절하네	-11670
▁감사해요	-11671
▁감정들을	-11672
▁감정들이	-11673
▁감출길이	-11674
▁강렬하고	-11675
▁강제종료	-11676
▁같은데도	-11677
▁같은데요	-11678
▁개강이다	-11679
▁개인적인	-11680
▁거라는데	-11681
▁거였구나	-11682
▁거짓말일	-11683
▁건강검진	-11684
▁건강에도	-11685
▁건조하네	-11686
▁걷다보면	-11687
▁걸릴지도	-11688
▁걸으세요	-11689
▁검색해서	-11690
▁것이겠죠	-11691
▁것이라면	-11692
▁격려하고	-11693
▁결정이길	-11694
▁결정이죠	-11695
▁결정적인	-11696
▁결정했어	-11697
▁결혼생활	-11698
▁결혼에는	-11699
▁거슬려	-11700
▁낮잠은	-11701
▁내면을	-11702
▁뜨겁고	-11703
▁먹먹함	-11704
▁베프랑	-11705
▁변신은	-11706
▁사춘기	-11707
▁사표를	-11708
▁서점에	-11709
▁선풍기	-11710
▁실천이	-11711
▁안맞는	-11712
▁오셨길	-11713
▁의중을	-11714
▁일방적	-11715
▁일부러	-11716
▁자장가	-11717
▁장갑을	-11718
▁졸린데	-11719
▁증거일	-11720
▁질린대	-11721
▁처리할	-11722
▁청결한	-11723
▁타인과	-11724
▁타인의	-11725
▁폭식증	-11726
▁피로를	-11727
▁필기구	-11728
▁학벌이	-11729
▁감정기복	-11730
▁결혼하는	-11731
▁결혼했어	-11732
▁경우예요	-11733
▁경조사는	-11734
▁계속되는	-11735
▁계속해도	-11736
▁계절이죠	-11737
▁계획대로	-11738
▁고기어도	-11739
▁고르세요	-11740
▁고마워할	-11741
▁고민이나	-11742
▁고민이네	-11743
▁고민인지	-11744
▁고민하는	-11745
▁고백한다	-11746
▁고백할걸	-11747
▁고백할까	-11748
▁고비예요	-11749
▁고치려고	-11750
▁고치면서	-11751
▁고통받고	-11752
▁골랐나봐	-11753
▁공무원이	-11754
▁공부하길	-11755
▁공부해야	-11756
▁공통점을	-11757
▁공허하네	-11758
▁공황장애	-11759
▁관계에서	-11760
▁관심있나	-11761
▁관찰하고	-11762
▁괜찮다가	-11763
▁괜찮다고	-11764
▁괜찮대요	-11765
▁괜찮아도	-11766
▁괴롭히는	-11767
▁교통사고	-11768
▁교환학생	-11769
▁구매하면	-11770
▁구하세요	-11771
▁궁금할만	-11772
▁귀여워요	-11773
▁귀엽다고	-11774
▁귀찮아서	-11775
▁귀찮으면	-11776
▁귀찮은데	-11777
▁그대로를	-11778
▁그래봤자	-11779
▁그러다가	-11780
▁그러든지	-11781
▁그런거지	-11782
▁그런건지	-11783
▁그럴때는	-11784
▁그럼에도	-11785
▁그렇겠지	-11786
▁그렇기도	-11787
▁그리워서	-11788
▁그립지만	-11789
▁그만두고	-11790
▁그만둬서	-11791
▁그만할래	-11792
▁그사람도	-11793
▁극복하고	-11794
▁극복하는	-11795
▁글자라도	-11796
▁기념일에	-11797
▁기념일을	-11798
▁기니까요	-11799
▁갱신	-11800
▁깍고	-11801
▁꼈어	-11802
▁떴어	-11803
▁박도	-11804
▁볶는	-11805
▁빛이	-11806
▁뻐근	-11807
▁뽀뽀	-11808
▁샜어	-11809
▁앱이	-11810
▁얽힌	-11811
▁엊그	-11812
▁짰어	-11813
▁쪄서	-11814
▁퇴사	-11815
그램을	-11816
년만난	-11817
년사귄	-11818
안됐네	-11819
용품이	-11820
이진지	-11821
잊혀지	-11822
▁계신가	-11823
▁꽃바구	-11824
▁꾸미고	-11825
▁냉방비	-11826
▁녹여서	-11827
▁돌잔치	-11828
▁동시에	-11829
▁먹여주	-11830
▁복받은	-11831
▁숫자일	-11832
▁없거든	-11833
▁오로라	-11834
▁저평가	-11835
▁진부한	-11836
▁헐었어	-11837
커플인데	-11838
▁계약했어	-11839
▁기다렸어	-11840
▁기다리다	-11841
▁기대하게	-11842
▁기분이야	-11843
▁기술이죠	-11844
▁기억들이	-11845
▁기억으로	-11846
▁기억하고	-11847
▁기우제를	-11848
▁기울이는	-11849
▁기울이지	-11850
▁기원해요	-11851
▁기적이죠	-11852
▁긴장하지	-11853
▁길어진다	-11854
▁깔끔하게	-11855
▁깔끔한게	-11856
▁깜빡거려	-11857
▁깨졌는데	-11858
▁꼬였는지	-11859
▁꾸준한게	-11860
▁꿈같았던	-11861
▁끊겼는데	-11862
▁끊었으면	-11863
▁끊으세요	-11864
▁끝났는데	-11865
▁끝내는게	-11866
▁끝내시길	-11867
▁끝냈는데	-11868
▁끝이났네	-11869
▁끝이라고	-11870
▁끝인가봐	-11871
▁나가기가	-11872
▁나가야지	-11873
▁나눠봐요	-11874
▁나아지지	-11875
▁나오기도	-11876
▁나오는데	-11877
▁나온다니	-11878
▁나온대요	-11879
▁나으세요	-11880
▁나이테죠	-11881
▁나타나면	-11882
▁난방비가	-11883
▁난방으로	-11884
▁날거예요	-11885
▁날이예요	-11886
▁날인지는	-11887
▁남나봐요	-11888
▁남았다면	-11889
▁남은걸까	-11890
▁남이라는	-11891
▁남자들이	-11892
▁남자와의	-11893
▁남자인데	-11894
▁남자인지	-11895
▁남편이랑	-11896
▁남편한테	-11897
▁낫겠네요	-11898
▁났나봐요	-11899
▁기침도	-11900
▁더디게	-11901
▁맞이할	-11902
▁매몰찬	-11903
▁못생긴	-11904
▁바래다	-11905
▁벌레를	-11906
▁벗어날	-11907
▁블랙박	-11908
▁스쳐도	-11909
▁야구장	-11910
▁욜로의	-11911
▁편린일	-11912
▁하객이	-11913
▁현관문	-11914
포인트가	-11915
▁견과류나	-11916
▁공간으로	-11917
▁공복이라	-11918
▁기쁨이죠	-11919
▁길거리에	-11920
▁끊으라고	-11921
▁나빴네요	-11922
▁나타나죠	-11923
▁내려놓는	-11924
▁내일이면	-11925
▁냉동실에	-11926
▁넣으세요	-11927
▁노력하지	-11928
▁노트북은	-11929
▁녹음이나	-11930
▁놀러갈까	-11931
▁놀았는데	-11932
▁농구하다	-11933
▁농담처럼	-11934
▁뇌세포에	-11935
▁누구와도	-11936
▁누락됐어	-11937
▁눈꺼풀의	-11938
▁느껴보고	-11939
▁느껴질때	-11940
▁느끼는게	-11941
▁느낌이길	-11942
▁늘거예요	-11943
▁늙어가고	-11944
▁능력이긴	-11945
▁다가가고	-11946
▁다가가기	-11947
▁다가가면	-11948
▁다가왔어	-11949
▁다그치지	-11950
▁다녀와요	-11951
▁다니거나	-11952
▁다니면서	-11953
▁다니세요	-11954
▁다르지만	-11955
▁다정한게	-11956
▁다했는데	-11957
▁다했다면	-11958
▁단둘이는	-11959
▁닫으세요	-11960
▁달라질까	-11961
▁답답하고	-11962
▁당신이요	-11963
▁당황해서	-11964
▁대단해요	-11965
▁대답할지	-11966
▁대우하는	-11967
▁대청소를	-11968
▁덤덤하게	-11969
▁데이트로	-11970
▁데이트에	-11971
▁데이트요	-11972
▁도망가고	-11973
▁도서관도	-11974
▁도와주세	-11975
▁도와줄까	-11976
▁독특함을	-11977
▁돌아가서	-11978
▁돌아보는	-11979
▁돌아보면	-11980
▁돌아서지	-11981
▁돌아오기	-11982
▁동거하고	-11983
▁동거하다	-11984
▁동거해도	-11985
▁동물이죠	-11986
▁동생으로	-11987
▁동심으로	-11988
▁되가는데	-11989
▁되는건지	-11990
▁되었나요	-11991
▁되었네요	-11992
▁되었는데	-11993
▁되었으면	-11994
▁된답니다	-11995
▁두근거려	-11996
▁두셨군요	-11997
▁뒷감당은	-11998
▁뒷모습만	-11999
▁괘씸	-12000
▁깐깐	-12001
▁닭발	-12002
▁댄디	-12003
▁댓글	-12004
▁송장	-12005
▁쑤셔	-12006
▁쩌는	-12007
▁쿠폰	-12008
▁힌트	-12009
기자랑	-12010
넛오일	-12011
년여의	-12012
배추즙	-12013
▁가르쳐	-12014
▁개당황	-12015
▁거리두	-12016
▁건방져	-12017
▁고구마	-12018
▁공기정	-12019
▁구릿빛	-12020
▁권리로	-12021
▁기관에	-12022
▁꼬까옷	-12023
▁꿀꿀해	-12024
▁끊긴지	-12025
▁나눴길	-12026
▁노동을	-12027
▁노처녀	-12028
▁도구죠	-12029
▁돌담길	-12030
▁동그란	-12031
▁들여다	-12032
▁등록금	-12033
▁땡기네	-12034
▁또다시	-12035
▁말랭이	-12036
▁목감기	-12037
▁몸값을	-12038
▁민망한	-12039
▁반배정	-12040
▁봄방학	-12041
▁북받쳐	-12042
▁브런치	-12043
▁상견례	-12044
▁생강차	-12045
▁섣부르	-12046
▁수당을	-12047
▁수많은	-12048
▁수백번	-12049
▁식도염	-12050
▁알람을	-12051
▁역류성	-12052
▁옷깃만	-12053
▁윗몸일	-12054
▁유머코	-12055
▁저금통	-12056
▁전달할	-12057
▁정동진	-12058
▁조명빨	-12059
▁차리래	-12060
▁채널을	-12061
▁챙길게	-12062
▁철밥통	-12063
▁쳇바퀴	-12064
▁카메라	-12065
▁칼국수	-12066
▁캐볼까	-12067
▁코골이	-12068
▁크루즈	-12069
▁팬미팅	-12070
▁편두통	-12071
▁프리마	-12072
나보군요	-12073
나쁜건지	-12074
대사량을	-12075
되어있는	-12076
방향인지	-12077
▁가시밭길	-12078
▁기분나쁘	-12079
▁뒹굴뒹글	-12080
▁드레스룸	-12081
▁드릴까요	-12082
▁드시는거	-12083
▁드시라고	-12084
▁득템했길	-12085
▁든든하게	-12086
▁듣고싶어	-12087
▁들어가요	-12088
▁들어와서	-12089
▁들었는데	-12090
▁들었어요	-12091
▁들으세요	-12092
▁들텐데요	-12093
▁등산해요	-12094
▁따라오게	-12095
▁따라하게	-12096
▁따야하나	-12097
▁때문이죠	-12098
▁때입니다	-12099
볶음밥	-12100
설팅을	-12101
워크가	-12102
율주행	-12103
적추적	-12104
▁가습기	-12105
▁광합성	-12106
▁귀찬하	-12107
▁금사빠	-12108
▁기어오	-12109
▁남주긴	-12110
▁내키는	-12111
▁넥타이	-12112
▁다육이	-12113
▁덕수궁	-12114
▁도피성	-12115
▁돈버는	-12116
▁동전의	-12117
▁두통약	-12118
▁롱패딩	-12119
▁마카롱	-12120
▁모잘라	-12121
▁모태솔	-12122
▁문열다	-12123
▁문의해	-12124
▁문질러	-12125
▁방탈출	-12126
▁배웠길	-12127
▁보증금	-12128
▁비키니	-12129
▁비판의	-12130
▁서비스	-12131
▁세뱃돈	-12132
▁솜씨가	-12133
▁수줍게	-12134
▁순서는	-12135
▁술주정	-12136
▁신선한	-12137
▁썸탈때	-12138
▁아줌마	-12139
▁안햇다	-12140
▁앞서서	-12141
▁애착이	-12142
▁애키우	-12143
▁오싹한	-12144
▁옥죄지	-12145
▁온수로	-12146
▁왼손잡	-12147
▁원피스	-12148
▁이브네	-12149
▁이전과	-12150
▁일하든	-12151
▁재테크	-12152
▁쟁여둔	-12153
▁전생에	-12154
▁정수리	-12155
▁조취를	-12156
▁종이에	-12157
▁체조를	-12158
▁타임머	-12159
▁특이한	-12160
▁틈틈이	-12161
▁피씨방	-12162
▁피어싱	-12163
▁호박씨	-12164
거리확보	-12165
야한다는	-12166
울컥하네	-12167
자격증을	-12168
주시다니	-12169
▁거창하지	-12170
▁공채때는	-12171
▁그곳에서	-12172
▁그나저나	-12173
▁다가옴을	-12174
▁다크서클	-12175
▁단짠으로	-12176
▁떠나갔네	-12177
▁떠나갔어	-12178
▁떠나보내	-12179
▁떠나세요	-12180
▁떠난다는	-12181
▁떠날까봐	-12182
▁떠오르네	-12183
▁떨리네요	-12184
▁떨리더라	-12185
▁떨어지지	-12186
▁뛰어넘는	-12187
▁뛰어넘을	-12188
▁뜨끈하게	-12189
▁뜻하기도	-12190
▁라디오를	-12191
▁라면봉지	-12192
▁로맨스는	-12193
▁롱디인데	-12194
▁마무리가	-12195
▁마스크팩	-12196
▁마시라고	-12197
▁마시세요	-12198
▁마음가짐	-12199
코스터를	-12200
▁교직이수	-12201
▁구꺼비집	-12202
▁권유하고	-12203
▁낙담하지	-12204
▁날카로워	-12205
▁뒤처지는	-12206
▁마음만은	-12207
▁마음에도	-12208
▁마음이죠	-12209
▁마음처럼	-12210
▁마주쳤어	-12211
▁마주하는	-12212
▁마찬가지	-12213
▁마침표가	-12214
▁막장으로	-12215
▁막히더라	-12216
▁만나는거	-12217
▁만나면서	-12218
▁만나보고	-12219
▁만나보는	-12220
▁만나야죠	-12221
▁만나지말	-12222
▁만드니까	-12223
▁만드세요	-12224
▁만족하는	-12225
▁만족하면	-12226
▁많겠네요	-12227
▁많겠어요	-12228
▁많나봐요	-12229
▁많아졌어	-12230
▁많아지는	-12231
▁많았으면	-12232
▁말보다는	-12233
▁말아야지	-12234
▁말이라도	-12235
▁말인가요	-12236
▁말하면서	-12237
▁말해주죠	-12238
▁말했으면	-12239
▁맘같으면	-12240
▁맘에서도	-12241
▁맛있는거	-12242
▁맛있을거	-12243
▁망설여지	-12244
▁망하는건	-12245
▁맞장구쳐	-12246
▁맞추려고	-12247
▁맞춤법을	-12248
▁맞춰가는	-12249
▁매력있는	-12250
▁매정하게	-12251
▁맨날맨날	-12252
▁머리에서	-12253
▁머릿속에	-12254
▁먹고네요	-12255
▁먹어보고	-12256
▁먹었어도	-12257
▁먹으니까	-12258
▁먹으려고	-12259
▁먹을수록	-12260
▁멀었네요	-12261
▁멀었어요	-12262
▁멋있는거	-12263
▁메뉴얼이	-12264
▁명절에는	-12265
▁명확하게	-12266
▁모르겠음	-12267
▁모르겠지	-12268
▁모르는걸	-12269
▁모르니까	-12270
▁모아봐요	-12271
▁모으시는	-12272
▁모임에서	-12273
▁모자라요	-12274
▁모자라지	-12275
▁목도리는	-12276
▁목소리는	-12277
▁몫이에요	-12278
▁몫입니다	-12279
▁몰라줘도	-12280
▁몰랐네요	-12281
▁몰려가는	-12282
▁몸짓으로	-12283
▁못잊는거	-12284
▁못하냐구	-12285
▁못하시는	-12286
▁무관심이	-12287
▁무기력증	-12288
▁무기력해	-12289
▁무리일까	-12290
▁무리하면	-12291
▁무리하지	-12292
▁무서운건	-12293
▁무서워서	-12294
▁무시하지	-12295
▁무엇보다	-12296
▁무엇인지	-12297
▁문화센터	-12298
▁묻어두는	-12299
▁디저트는	-12300
▁무뚝뚝해	-12301
▁물론이죠	-12302
▁물리치료	-12303
▁물어보지	-12304
▁물이라도	-12305
▁뭐였더라	-12306
▁뭐하면서	-12307
▁미련없는	-12308
▁미리미리	-12309
▁미스트나	-12310
▁미워하는	-12311
▁미워한다	-12312
▁미워해도	-12313
▁미치겠다	-12314
▁미팅한다	-12315
▁밑거름이	-12316
▁바랄세요	-12317
▁바람난거	-12318
▁바람이나	-12319
▁바람인지	-12320
▁바르세요	-12321
▁바보같은	-12322
▁바보라고	-12323
▁바쁘네요	-12324
▁반대예요	-12325
▁반복될까	-12326
▁반복하지	-12327
▁반이에요	-12328
▁반하는게	-12329
▁반항했어	-12330
▁받아드리	-12331
▁받아줄까	-12332
▁받았는데	-12333
▁받으시는	-12334
▁발바니다	-12335
▁발전시켜	-12336
▁발전적인	-12337
▁발전하면	-12338
▁발표할때	-12339
▁밝혀지기	-12340
▁밥심으로	-12341
▁밥이예요	-12342
▁방법이란	-12343
▁방학이래	-12344
▁배고프지	-12345
▁배려하고	-12346
▁배려해줄	-12347
▁배우는게	-12348
▁배우자와	-12349
▁배움에는	-12350
▁배터리가	-12351
▁백업해놓	-12352
▁버리겠어	-12353
▁버스에서	-12354
▁범죄에요	-12355
▁법이에요	-12356
▁벗어나고	-12357
▁벗었는데	-12358
▁벗으니까	-12359
▁벚꽃구경	-12360
▁베터리만	-12361
▁베트남어	-12362
▁변신하고	-12363
▁변화이길	-12364
▁별로라면	-12365
▁별로인가	-12366
▁별이에요	-12367
▁보고싶을	-12368
▁보내기로	-12369
▁보내줘야	-12370
▁보란듯이	-12371
▁보였으면	-12372
▁보이는데	-12373
▁보이세요	-12374
▁보일러를	-12375
▁보자는데	-12376
▁보장해요	-12377
▁복붙으로	-12378
▁복스럽게	-12379
▁복이와요	-12380
▁복전하면	-12381
▁봄인가봐	-12382
▁봐달라고	-12383
▁봐야겠다	-12384
▁봐야하나	-12385
▁봐주니까	-12386
▁봤나봐요	-12387
▁부담감을	-12388
▁부담되지	-12389
▁부담스러	-12390
▁부메랑이	-12391
▁부모님과	-12392
▁부여하지	-12393
▁부자되실	-12394
▁부족한지	-12395
▁부질없는	-12396
▁부추기면	-12397
▁분에게도	-12398
▁분위기도	-12399
▁분이네요	-12400
▁불과하죠	-12401
▁불금이네	-12402
▁불러줬어	-12403
▁불편함을	-12404
▁붙이세요	-12405
▁블록들이	-12406
▁블루투스	-12407
▁비슷한거	-12408
▁비싸지만	-12409
▁비오는데	-12410
▁비왔으면	-12411
▁빠졌군요	-12412
▁빠질까봐	-12413
▁뽑지말고	-12414
▁뿐이예요	-12415
▁사겼는데	-12416
▁사귀기로	-12417
▁사귀어서	-12418
▁사나봐요	-12419
▁사는데요	-12420
▁사드리고	-12421
▁사라질까	-12422
▁사람들과	-12423
▁사람들도	-12424
▁사람들을	-12425
▁사람보다	-12426
▁사람이네	-12427
▁사람인가	-12428
▁사람인지	-12429
▁사랑없이	-12430
▁사랑에서	-12431
▁사랑이란	-12432
▁사랑인가	-12433
▁사랑해도	-12434
▁사랑해줘	-12435
▁사랑했기	-12436
▁사야겠지	-12437
▁사오세요	-12438
▁사이라면	-12439
▁사이즈를	-12440
▁사주세요	-12441
▁사춘기로	-12442
▁살기에는	-12443
▁살아야돼	-12444
▁삼겹살에	-12445
▁상담이나	-12446
▁상대분이	-12447
▁상사예요	-12448
▁상사한테	-12449
▁상종하지	-12450
▁상처주는	-12451
▁상처주지	-12452
▁상처줬어	-12453
▁상태에서	-12454
▁상황에서	-12455
▁상황인지	-12456
▁색다른걸	-12457
▁생각나서	-12458
▁생각난다	-12459
▁생각났을	-12460
▁생각인지	-12461
▁생각하기	-12462
▁생각하며	-12463
▁생각했을	-12464
▁생겼나봐	-12465
▁생기시길	-12466
▁생긴다고	-12467
▁생일이야	-12468
▁생일인데	-12469
▁샤워가운	-12470
▁서운한거	-12471
▁서운함을	-12472
▁서툴러도	-12473
▁서핑하러	-12474
▁선물이라	-12475
▁선물할까	-12476
▁선생님도	-12477
▁선천적인	-12478
▁선택이든	-12479
▁선택이죠	-12480
▁설날인데	-12481
▁성공에서	-12482
▁성공적일	-12483
▁성공하면	-12484
▁성공했길	-12485
▁성장하려	-12486
▁세수하고	-12487
▁섹스리스	-12488
▁소독하고	-12489
▁소리나서	-12490
▁소맥이요	-12491
▁소분해서	-12492
▁소액결제	-12493
▁소중하게	-12494
▁소중해요	-12495
▁속사정을	-12496
▁속이는건	-12497
▁손재주가	-12498
▁손톱이나	-12499
▁손해예요	-12500
▁솔솔와서	-12501
▁솔직하지	-12502
▁쇼핑몰이	-12503
▁수강신청	-12504
▁수분크림	-12505
▁수상한데	-12506
▁수업시간	-12507
▁수준에서	-12508
▁순간들이	-12509
▁순수했던	-12510
▁술마시고	-12511
▁술마시는	-12512
▁쉽겠어요	-12513
▁슈퍼라도	-12514
▁스노클링	-12515
▁스몰웨딩	-12516
▁스스로도	-12517
▁스스로의	-12518
▁스케일링	-12519
▁스타벅스	-12520
▁스타일러	-12521
▁스타일의	-12522
▁슬프게도	-12523
▁습관으로	-12524
▁시간들을	-12525
▁시간들이	-12526
▁시간이죠	-12527
▁시간인가	-12528
▁시기에요	-12529
▁시베리아	-12530
▁시작하고	-12531
▁시켜야지	-12532
▁시켜줬어	-12533
▁시트지로	-12534
▁식사시간	-12535
▁식습관을	-12536
▁식욕폭발	-12537
▁신용카드	-12538
▁신행준비	-12539
▁신혼인데	-12540
▁실례에요	-12541
▁실례예요	-12542
▁실수한거	-12543
▁실패해도	-12544
▁싫어져요	-12545
▁싫어졌어	-12546
▁싫어할까	-12547
▁싫었는데	-12548
▁싫은가봐	-12549
▁심리상담	-12550
▁심심하다	-12551
▁심쿵하게	-12552
▁심플하게	-12553
▁심하네요	-12554
▁싶어서요	-12555
▁싶어지죠	-12556
▁싶었는데	-12557
▁싶은대로	-12558
▁싸가지고	-12559
▁싸우기만	-12560
▁싸웠는데	-12561
▁썸남인데	-12562
▁썸타는거	-12563
▁썸타는데	-12564
▁쓰니까요	-12565
▁씁쓸하네	-12566
▁씨씨인데	-12567
▁씻어보고	-12568
▁아까워요	-12569
▁아깝네요	-12570
▁아니예요	-12571
▁아닌가봐	-12572
▁아닐지도	-12573
▁아름답게	-12574
▁아무렇지	-12575
▁아무일도	-12576
▁아빠에게	-12577
▁아시네요	-12578
▁아싸해도	-12579
▁아웃풋이	-12580
▁아이돌이	-12581
▁아재인가	-12582
▁아직인가	-12583
▁아파트가	-12584
▁아파하지	-12585
▁아프니까	-12586
▁아픈가요	-12587
▁안가지고	-12588
▁안경테가	-12589
▁안나가고	-12590
▁안녕이죠	-12591
▁안돌아오	-12592
▁안됐네요	-12593
▁안되는게	-12594
▁안된다고	-12595
▁안됩니다	-12596
▁안들어와	-12597
▁안전하지	-12598
▁안정적인	-12599
▁안풀리는	-12600
▁안하고는	-12601
▁안하는게	-12602
▁안했으면	-12603
▁앉아있지	-12604
▁않으셨나	-12605
▁알거예요	-12606
▁알고보니	-12607
▁알바비가	-12608
▁알바예요	-12609
▁알바하면	-12610
▁알아가고	-12611
▁알아내서	-12612
▁알아봐요	-12613
▁알아주는	-12614
▁알았어요	-12615
▁알았으면	-12616
▁앞머리로	-12617
▁앞모습을	-12618
▁앞으로는	-12619
▁애국가요	-12620
▁애매모호	-12621
▁애석해요	-12622
▁야경구경	-12623
▁야경이죠	-12624
▁약해지면	-12625
▁양배추즙	-12626
▁양치하고	-12627
▁어디에요	-12628
▁어딘가에	-12629
▁어떡하면	-12630
▁어떡해야	-12631
▁어떤건지	-12632
▁어떻하죠	-12633
▁어렵네요	-12634
▁어렸을때	-12635
▁어리석은	-12636
▁어색해서	-12637
▁어울리면	-12638
▁어장관리	-12639
▁어장이면	-12640
▁어젯밤에	-12641
▁어찌하면	-12642
▁언제했어	-12643
▁얻는다는	-12644
▁얼떨떨할	-12645
▁없는걸요	-12646
▁없어졌네	-12647
▁없었는데	-12648
▁없을거야	-12649
▁엇갈리는	-12650
▁여러가지	-12651
▁여름에는	-12652
▁여우네요	-12653
▁여자애랑	-12654
▁여자애를	-12655
▁여자애의	-12656
▁여자인지	-12657
▁여행가재	-12658
▁엮여있는	-12659
▁연락하기	-12660
▁연락했어	-12661
▁연습하면	-12662
▁연애하다	-12663
▁연예인을	-12664
▁열받아서	-12665
▁열어주지	-12666
▁였나봐요	-12667
▁영어학원	-12668
▁영칼로리	-12669
▁영화보재	-12670
▁예능이요	-12671
▁예랑이가	-12672
▁예민해서	-12673
▁예민해져	-12674
▁예쁘겠죠	-12675
▁예쁘니까	-12676
▁예쁜걸로	-12677
▁예전처럼	-12678
▁오겠네요	-12679
▁오늘보다	-12680
▁오늘부로	-12681
▁오늘처럼	-12682
▁오래가요	-12683
▁오려나요	-12684
▁오빠한테	-12685
▁오해하게	-12686
▁옳은걸까	-12687
▁옷차림도	-12688
▁완전체가	-12689
▁완전하게	-12690
▁왔다갔다	-12691
▁외로움이	-12692
▁외로워서	-12693
▁요긴하긴	-12694
▁요즘에는	-12695
▁욕망이지	-12696
▁우리끼리	-12697
▁우리집에	-12698
▁우울하고	-12699
▁우울하네	-12700
▁우울할땐	-12701
▁운동하게	-12702
▁운동하고	-12703
▁운동하다	-12704
▁운전처럼	-12705
▁울적해서	-12706
▁웃어봐요	-12707
▁웃음나는	-12708
▁월급날을	-12709
▁월급날이	-12710
▁월요일도	-12711
▁웨딩촬영	-12712
▁위로해줄	-12713
▁위해서는	-12714
▁위험하죠	-12715
▁위험할까	-12716
▁위험해요	-12717
▁유행이래	-12718
▁유행하고	-12719
▁의사표시	-12720
▁의존하는	-12721
▁의지하지	-12722
▁이것저것	-12723
▁이겨내기	-12724
▁이대로가	-12725
▁이벤트를	-12726
▁이별에도	-12727
▁이별하신	-12728
▁이별했네	-12729
▁이별했어	-12730
▁이불에서	-12731
▁이상으로	-12732
▁이상이면	-12733
▁이상하게	-12734
▁이상하지	-12735
▁이상형일	-12736
▁이야기가	-12737
▁이어지길	-12738
▁이해하지	-12739
▁이해해줘	-12740
▁익숙함이	-12741
▁인도해줄	-12742
▁인사부터	-12743
▁인스타를	-12744
▁인연인가	-12745
▁인정해줄	-12746
▁일기예보	-12747
▁일방적인	-12748
▁일상에서	-12749
▁일시적인	-12750
▁일어날까	-12751
▁일요일이	-12752
▁일이냐에	-12753
▁일이었어	-12754
▁일이었을	-12755
▁일이지요	-12756
▁일인자가	-12757
▁입냄새가	-12758
▁입어보고	-12759
▁잇몸에서	-12760
▁있겠지요	-12761
▁있다는데	-12762
▁있다면요	-12763
▁있었는지	-12764
▁있을거라	-12765
▁있을수도	-12766
▁잊고싶다	-12767
▁잊어가요	-12768
▁잊지말고	-12769
▁잊혀지네	-12770
▁잊혀지면	-12771
▁자격증일	-12772
▁자괴감이	-12773
▁자기보다	-12774
▁자기한테	-12775
▁자랑하는	-12776
▁자리에서	-12777
▁자세예요	-12778
▁자신다운	-12779
▁자신하고	-12780
▁자유지만	-12781
▁자율주행	-12782
▁자장가를	-12783
▁자주하면	-12784
▁작은것에	-12785
▁잔인하네	-12786
▁잔잔하네	-12787
▁잘됐으면	-12788
▁잘못이지	-12789
▁잘생겼어	-12790
▁잘생겼지	-12791
▁잘하는지	-12792
▁잘하니까	-12793
▁잘하세요	-12794
▁잘해줘도	-12795
▁잠겼는데	-12796
▁잠수타는	-12797
▁잠수탔어	-12798
▁잠자리에	-12799
▁잠재력은	-12800
▁장기자랑	-12801
▁장단점을	-12802
▁장만하는	-12803
▁재미없지	-12804
▁재밌거나	-12805
▁재밌겠지	-12806
▁재설계가	-12807
▁재택근무	-12808
▁재활용도	-12809
▁재회하고	-12810
▁재회하면	-12811
▁저렴하게	-12812
▁저음이죠	-12813
▁저입니다	-12814
▁저축해서	-12815
▁저편으로	-12816
▁적당해요	-12817
▁적응하고	-12818
▁적이에요	-12819
▁전기장판	-12820
▁전역해서	-12821
▁전하는게	-12822
▁전하세요	-12823
▁전학가게	-12824
▁전형적인	-12825
▁전화왔어	-12826
▁전화하고	-12827
▁전화하기	-12828
▁절약하면	-12829
▁접질렀어	-12830
▁정글에서	-12831
▁정리하려	-12832
▁정리해야	-12833
▁정상이죠	-12834
▁정상일까	-12835
▁정신차리	-12836
▁정열적인	-12837
▁제습기를	-12838
▁조깅하고	-12839
▁조심스레	-12840
▁조용하니	-12841
▁종료네요	-12842
▁좋겠다고	-12843
▁좋더라도	-12844
▁좋아해서	-12845
▁좋았겠죠	-12846
▁좋으면서	-12847
▁좋은점을	-12848
▁좋은차로	-12849
▁좋은텐데	-12850
▁좋을거죠	-12851
▁좋지만은	-12852
▁주물주물	-12853
▁주워담을	-12854
▁주인공은	-12855
▁주차장이	-12856
▁주택청약	-12857
▁죽고싶어	-12858
▁준비하니	-12859
▁준비하면	-12860
▁중독에서	-12861
▁중소기업	-12862
▁중요한지	-12863
▁즐거워요	-12864
▁즐겨보는	-12865
▁즐겨야지	-12866
▁증명하는	-12867
▁지각하네	-12868
▁지금까지	-12869
▁지금이죠	-12870
▁지끈거려	-12871
▁지내는데	-12872
▁지냈으면	-12873
▁지름신이	-12874
▁지불하고	-12875
▁지속해도	-12876
▁지압이나	-12877
▁지옥같은	-12878
▁지진나면	-12879
▁지쳐가네	-12880
▁지칩니다	-12881
▁지켜보는	-12882
▁지켜지지	-12883
▁지키면서	-12884
▁직접적인	-12885
▁진급에서	-12886
▁진리예요	-12887
▁진실되게	-12888
▁진심인지	-12889
▁진짜일까	-12890
▁질거예요	-12891
▁질척거리	-12892
▁질투하는	-12893
▁질투하지	-12894
▁짐작하는	-12895
▁집안일이	-12896
▁집앞에서	-12897
▁집착하지	-12898
▁짜장면은	-12899
▁짜증난다	-12900
▁짝사랑인	-12901
▁짝사랑일	-12902
▁짝사랑한	-12903
▁짧은만남	-12904
▁째깍째깍	-12905
▁찌뿌둥해	-12906
▁찍다보면	-12907
▁차곡차곡	-12908
▁차단하는	-12909
▁착각일까	-12910
▁착각하고	-12911
▁착찹하네	-12912
▁참석하는	-12913
▁참았어요	-12914
▁찾는다고	-12915
▁찾아가고	-12916
▁찾아보는	-12917
▁찾아볼까	-12918
▁찾아야할	-12919
▁찾아오길	-12920
▁챙겨주고	-12921
▁챙겨줄까	-12922
▁챙긴다는	-12923
▁처음이라	-12924
▁천국이니	-12925
▁천재예요	-12926
▁첫데이트	-12927
▁첫사랑도	-12928
▁첫사랑은	-12929
▁첫키스는	-12930
▁청결하게	-12931
▁청소기를	-12932
▁청첩장을	-12933
▁체인으로	-12934
▁초대하고	-12935
▁초심으로	-12936
▁최고라고	-12937
▁추적추적	-12938
▁출근시간	-12939
▁출근하기	-12940
▁출퇴근을	-12941
▁충전기도	-12942
▁충전기를	-12943
▁충전하고	-12944
▁충전하는	-12945
▁취직할까	-12946
▁취향인데	-12947
▁치맥이죠	-12948
▁치열하죠	-12949
▁친구사이	-12950
▁친구해도	-12951
▁친절한데	-12952
▁침대에서	-12953
▁카카오톡	-12954
▁카톡에서	-12955
▁카톡하고	-12956
▁카톡하는	-12957
▁카톡하지	-12958
▁카페가면	-12959
▁카페라도	-12960
▁카페인이	-12961
▁커뮤니티	-12962
▁커플부터	-12963
▁컨설팅을	-12964
▁컴백한다	-12965
▁콜록콜록	-12966
▁크게한번	-12967
▁클스마스	-12968
▁키우세요	-12969
▁타이밍을	-12970
▁탈이네요	-12971
▁탈출구를	-12972
▁탈출하고	-12973
▁태그해도	-12974
▁태닝할까	-12975
▁태도네요	-12976
▁태어나고	-12977
▁태어나도	-12978
▁태연하게	-12979
▁택시탈까	-12980
▁통화하면	-12981
▁퇴근시간	-12982
▁트집잡는	-12983
▁특별하죠	-12984
▁티냈는데	-12985
▁팀워크가	-12986
▁파급력이	-12987
▁파혼했어	-12988
▁판단하지	-12989
▁패션으로	-12990
▁편안하고	-12991
▁편이에요	-12992
▁편하대요	-12993
▁편할지도	-12994
▁평소처럼	-12995
▁평안했던	-12996
▁평온하길	-12997
▁포근하죠	-12998
▁포기해야	-12999
▁폰케이스	-13000
▁표출하는	-13001
▁프로젝트	-13002
▁플라토닉	-13003
▁피곤한건	-13004
▁피곤한테	-13005
▁피해가는	-13006
▁피해주지	-13007
▁필요없는	-13008
▁필요하면	-13009
▁필요할까	-13010
▁필요했던	-13011
▁핑계보다	-13012
▁하겠네요	-13013
▁하고싶다	-13014
▁하고싶어	-13015
▁하고싶은	-13016
▁하나밖에	-13017
▁하는거야	-13018
▁하는건가	-13019
▁하늘만큼	-13020
▁하던데요	-13021
▁하루이길	-13022
▁하셔야죠	-13023
▁하셨어요	-13024
▁하시다니	-13025
▁학기에는	-13026
▁한강에서	-13027
▁한눈팔며	-13028
▁한다는데	-13029
▁한달됐어	-13030
▁한달반째	-13031
▁한달인데	-13032
▁한순간에	-13033
▁한심하네	-13034
▁함께하면	-13035
▁함께할때	-13036
▁합격하는	-13037
▁해결방안	-13038
▁해결해줄	-13039
▁해도해도	-13040
▁해드세요	-13041
▁해로우니	-13042
▁해로워요	-13043
▁해버렸네	-13044
▁해보는건	-13045
▁해보는게	-13046
▁해봤어요	-13047
▁해야겠어	-13048
▁해야하는	-13049
▁핸드폰은	-13050
▁핸드폰을	-13051
▁했을거라	-13052
▁행복하실	-13053
▁행운까지	-13054
▁허락하는	-13055
▁허리띠를	-13056
▁허무하다	-13057
▁헤어나올	-13058
▁헤어져도	-13059
▁헤어지신	-13060
▁헤어진후	-13061
▁헤이진지	-13062
▁현금이면	-13063
▁현실에서	-13064
▁현실이랑	-13065
▁호감가는	-13066
▁호감인지	-13067
▁호르몬이	-13068
▁호의인지	-13069
▁혼나면서	-13070
▁혼란스럽	-13071
▁혼자인게	-13072
▁혼자하는	-13073
▁화가나네	-13074
▁화장실을	-13075
▁화장으로	-13076
▁확신하는	-13077
▁확실하지	-13078
▁확실한지	-13079
▁확실해졌	-13080
▁환기하는	-13081
▁환승하는	-13082
▁활력소가	-13083
▁회사네요	-13084
▁후련하길	-13085
▁후회하고	-13086
▁휴대폰이	-13087
▁흔들리고	-13088
▁흔들리네	-13089
▁희망고문	-13090
▁힘겨울때	-13091
▁힘내라는	-13092
▁힘드네여	-13093
▁힘든가요	-13094
▁힘든거네	-13095
▁힘들기도	-13096
▁힘들어할	-13097
▁힘들텐데	-13098
감상이라고	-13099
나가는거죠	-13100
스럽습니다	-13101
이었을까요	-13102
주려나봐요	-13103
하기로했어	-13104
하나봅니다	-13105
하우스에서	-13106
해야하는걸	-13107
▁가을이네요	-13108
▁가져가세요	-13109
▁각질제거를	-13110
▁간접적으로	-13111
▁갈렸나봐요	-13112
▁감성적이기	-13113
▁감싸주세요	-13114
▁감정기복이	-13115
▁감정소모가	-13116
▁감정이에요	-13117
▁감정조절이	-13118
▁감정컨트롤	-13119
▁갑작스러웠	-13120
▁갔다와야지	-13121
▁강박관념에	-13122
▁강추위래요	-13123
▁개인적으로	-13124
▁거짓말이길	-13125
▁걱정이네요	-13126
▁걱정이에요	-13127
▁게임하세요	-13128
▁게임할때는	-13129
▁견뎌보세요	-13130
▁결심이네요	-13131
▁결정난데요	-13132
▁결혼식이야	-13133
▁결혼하겠대	-13134
▁결혼하세요	-13135
▁결혼해서도	-13136
▁경쟁하겠죠	-13137
▁경제적으로	-13138
▁경험이라고	-13139
▁계절이에요	-13140
▁계획적이고	-13141
▁고기앞이죠	-13142
▁고마운만큼	-13143
▁고민이에요	-13144
▁고시원에서	-13145
▁곤두세우지	-13146
▁곳이라면요	-13147
▁곳인가봐요	-13148
▁공개적으로	-13149
▁공급하려는	-13150
▁공동육아가	-13151
▁공부방법을	-13152
▁공부하면서	-13153
▁공부하자고	-13154
▁공시생인데	-13155
▁공통이에요	-13156
▁공휴일에는	-13157
▁관계입니다	-13158
▁관리해봐요	-13159
▁괜찮다가도	-13160
▁괜찮아지길	-13161
▁괜찮았는데	-13162
▁괜찮은가요	-13163
▁괜찮은거로	-13164
▁구박하지는	-13165
▁구여친이랑	-13166
▁구하셨나요	-13167
▁궁금하다고	-13168
▁귀차니즘을	-13169
▁귀찮아할까	-13170
▁그녀에게도	-13171
▁그럴거예요	-13172
▁그리워하는	-13173
▁그립습니다	-13174
▁그만하는게	-13175
▁극복하거나	-13176
▁근무시간이	-13177
▁금물이에요	-13178
▁금연하세요	-13179
▁긍정적으로	-13180
▁긍정적이고	-13181
▁기다려봐요	-13182
▁기다렸다가	-13183
▁기다리라고	-13184
▁기다리면서	-13185
▁기다리지도	-13186
▁기대로부터	-13187
▁기본이에요	-13188
▁기본인데요	-13189
▁기분전환에	-13190
▁기분전환이	-13191
▁기어오른다	-13192
▁기억해주고	-13193
▁기울여봐요	-13194
▁기울여주고	-13195
▁기특하네요	-13196
▁김치볶음밥	-13197
▁깔끔하겠죠	-13198
▁꿰메보세요	-13199
▁끓여드세요	-13200
▁끝냈습니다	-13201
▁끝인가봐요	-13202
▁끝인거겠죠	-13203
▁끝인거예요	-13204
▁나오겠네요	-13205
▁나이테예요	-13206
▁남겨보세요	-13207
▁남동생한테	-13208
▁남자친구는	-13209
▁내년이라고	-13210
▁내려두세요	-13211
▁내려주세요	-13212
▁내렸나봐요	-13213
▁너무하는게	-13214
▁넘겨보세요	-13215
▁넣어보세요	-13216
▁노려보세요	-13217
▁노력해야죠	-13218
▁녹여보세요	-13219
▁놀아드리고	-13220
▁놀이동산은	-13221
▁높나봅니다	-13222
▁높아집니다	-13223
▁높여보세요	-13224
▁느낀다면요	-13225
▁느낌이네요	-13226
▁느낌이에요	-13227
▁느려지는듯	-13228
▁능력이겠죠	-13229
▁능력이라면	-13230
▁다가가는게	-13231
▁다가가야죠	-13232
▁다가갔네요	-13233
▁다가왔네요	-13234
▁다르니까요	-13235
▁다음달에는	-13236
▁다이렉트로	-13237
▁다이어트를	-13238
▁다짐이에요	-13239
▁다행입니다	-13240
▁달라졌겠죠	-13241
▁달라지겠죠	-13242
▁달랐나봐요	-13243
▁달렸나봐요	-13244
▁달콤하네요	-13245
▁답답하다면	-13246
▁당당해져도	-13247
▁당했나봐요	-13248
▁당했습니다	-13249
▁대수인가요	-13250
▁대체불가한	-13251
▁대화하면서	-13252
▁데려달라고	-13253
▁데이트하기	-13254
▁도망가라는	-13255
▁도서관에서	-13256
▁도와드리면	-13257
▁도와주려는	-13258
▁동감이에요	-13259
▁동의한다면	-13260
▁되시겠어요	-13261
▁되어갑니다	-13262
▁되었겠네요	-13263
▁될수있겠죠	-13264
▁두근거려요	-13265
▁뒤돌아봐도	-13266
▁뒷담화하는	-13267
▁뒹굴거리고	-13268
▁들어가기가	-13269
▁들어가세요	-13270
▁들었나봐요	-13271
▁따라가겠지	-13272
▁따라가려면	-13273
▁따라와주지	-13274
▁딸기잼에게	-13275
▁떠났습니다	-13276
▁뚫어보아요	-13277
▁띄어보세요	-13278
▁레시피대로	-13279
▁로망이네요	-13280
▁로맨틱해요	-13281
▁리폼할거야	-13282
▁마련이지요	-13283
▁마음에서도	-13284
▁마음이란게	-13285
▁막아보세요	-13286
▁만나고왔어	-13287
▁만나보시면	-13288
▁만났는데도	-13289
▁만드나봐요	-13290
▁만들거예요	-13291
▁만들어볼까	-13292
▁만들어야지	-13293
▁만들어주는	-13294
▁많으시군요	-13295
▁많으시네요	-13296
▁많을거예요	-13297
▁말아보셔요	-13298
▁말하는대로	-13299
▁말해달라고	-13300
▁말해보는게	-13301
▁맛있겠네요	-13302
▁맞는거겠죠	-13303
▁맞춰가기도	-13304
▁맞춰주세요	-13305
▁매력이겠죠	-13306
▁머리스타일	-13307
▁머리카락이	-13308
▁머릿속에서	-13309
▁먹었습니다	-13310
▁메모리카드	-13311
▁모르겠는데	-13312
▁모습일지도	-13313
▁모처럼만에	-13314
▁못지우겠네	-13315
▁무덤덤한데	-13316
▁무리하지는	-13317
▁무섭습니다	-13318
▁무소음으로	-13319
▁무엇인가를	-13320
▁무한리필만	-13321
▁문제겠네요	-13322
▁물어보면서	-13323
▁뭐하냐는데	-13324
▁미끄러우니	-13325
▁미루지말고	-13326
▁미안해하는	-13327
▁밑바닥까지	-13328
▁바라봤을때	-13329
▁바쁘더라도	-13330
▁받아들여요	-13331
▁받아들이지	-13332
▁받았습니다	-13333
▁받지마세요	-13334
▁밤인가봐요	-13335
▁방학이예요	-13336
▁배워보세요	-13337
▁버려달라고	-13338
▁버려보세요	-13339
▁버려야겠지	-13340
▁버려야지요	-13341
▁버텨냈어요	-13342
▁변덕스러운	-13343
▁변명보다는	-13344
▁변해가는거	-13345
▁보고싶다고	-13346
▁보고싶어서	-13347
▁보고싶어요	-13348
▁보내겠네요	-13349
▁보답하세요	-13350
▁보셨나봐요	-13351
▁보약이에요	-13352
▁보여보세요	-13353
▁복잡하네요	-13354
▁본거에서는	-13355
▁본받으면서	-13356
▁부담스럽게	-13357
▁부려보세요	-13358
▁부모님만의	-13359
▁부모님이나	-13360
▁부분이에요	-13361
▁부족하지만	-13362
▁부족합니다	-13363
▁분들이에요	-13364
▁분이시군요	-13365
▁불공평해요	-13366
▁불러주세요	-13367
▁불안해하지	-13368
▁붙잡으세요	-13369
▁블록체인이	-13370
▁비워보세요	-13371
▁비정상이야	-13372
▁비틀어져요	-13373
▁비행기표가	-13374
▁비혼주의래	-13375
▁빌려줬는데	-13376
▁빠르시군요	-13377
▁빠졌나봐요	-13378
▁빼앗겼다고	-13379
▁뿌려보세요	-13380
▁뿐이니까요	-13381
▁사과하는게	-13382
▁사과해야죠	-13383
▁사나봅니다	-13384
▁사다리타기	-13385
▁사람들이나	-13386
▁사람들이랑	-13387
▁사람들이요	-13388
▁사람이군요	-13389
▁사람이니까	-13390
▁사람이라고	-13391
▁사람이었어	-13392
▁사람이예요	-13393
▁사람입니다	-13394
▁사람한테만	-13395
▁사랑만으로	-13396
▁사랑이라면	-13397
▁사랑하는게	-13398
▁사랑하면서	-13399
▁사랑해라고	-13400
▁사랑했는데	-13401
▁사랑했다는	-13402
▁사로잡히지	-13403
▁사먹으세요	-13404
▁사실이네요	-13405
▁사야되는데	-13406
▁사회생활로	-13407
▁사회생활을	-13408
▁사회생활의	-13409
▁사회에서도	-13410
▁살아보세요	-13411
▁상대적으로	-13412
▁상대적이죠	-13413
▁생각난다면	-13414
▁생각입니다	-13415
▁생각하기는	-13416
▁생각한다고	-13417
▁생각한다면	-13418
▁생각해주는	-13419
▁생각했나봐	-13420
▁생각했어요	-13421
▁생겼을때는	-13422
▁생일입니다	-13423
▁생활용품이	-13424
▁생활패턴을	-13425
▁샤워하는데	-13426
▁서비스센터	-13427
▁선물이에요	-13428
▁선물해볼까	-13429
▁선생님이나	-13430
▁선생님이요	-13431
▁선생님한테	-13432
▁선택했어요	-13433
▁설레겠어요	-13434
▁설렜나봐요	-13435
▁섬유탈취제	-13436
▁성덕이네요	-13437
▁세상이에요	-13438
▁셀프였으면	-13439
▁셀프웨딩이	-13440
▁소개팅한다	-13441
▁소름돋네요	-13442
▁소액결제를	-13443
▁소화시켜야	-13444
▁속시원해요	-13445
▁속아주세요	-13446
▁손해배상을	-13447
▁솔직했으면	-13448
▁순수하다는	-13449
▁쉬어주세요	-13450
▁쉬워보이나	-13451
▁슈퍼우먼이	-13452
▁습관이라고	-13453
▁시간이지요	-13454
▁시간표대로	-13455
▁시급하네요	-13456
▁시도해봐도	-13457
▁시어머니도	-13458
▁시원하네요	-13459
▁시작됩니다	-13460
▁시작해보면	-13461
▁시켜보세요	-13462
▁시키는데로	-13463
▁식단이네요	-13464
▁식단조절도	-13465
▁식혀주세요	-13466
▁신기하네요	-13467
▁신혼여행은	-13468
▁실수한건가	-13469
▁실수했나요	-13470
▁실천하기는	-13471
▁싫은가봐요	-13472
▁심심하다고	-13473
▁싱숭생숭한	-13474
▁싶은가봐요	-13475
▁쓰리겠어요	-13476
▁쓰셨나봐요	-13477
▁쓸데없어요	-13478
▁씌였나봐요	-13479
▁아니었나요	-13480
▁아니었네요	-13481
▁아무렇게나	-13482
▁아쉽겠어요	-13483
▁아울렛이죠	-13484
▁아이다워야	-13485
▁아이라이너	-13486
▁아줌마들이	-13487
▁아침이에요	-13488
▁아파하면서	-13489
▁아프겠네요	-13490
▁안갈거예요	-13491
▁안나겠어요	-13492
▁안나나봐요	-13493
▁안되겠지만	-13494
▁안되는건가	-13495
▁안읽씹하면	-13496
▁안정적이고	-13497
▁안타까워요	-13498
▁안타깝지만	-13499
▁않았을텐데	-13500
▁않은가봐요	-13501
▁알게되면서	-13502
▁알겠습니다	-13503
▁알아가야죠	-13504
▁알아봐주는	-13505
▁애석하네요	-13506
▁어디서부터	-13507
▁어디있을까	-13508
▁어려서부터	-13509
▁어려우니까	-13510
▁어렵겠지만	-13511
▁어렸을때는	-13512
▁어린가봐요	-13513
▁어색해졌어	-13514
▁어쩔수없죠	-13515
▁엄마아빠랑	-13516
▁업데이트가	-13517
▁없는걸지도	-13518
▁없어가지구	-13519
▁여기까지가	-13520
▁여름이네요	-13521
▁여행지에서	-13522
▁연락이었길	-13523
▁연락하세요	-13524
▁연락했을까	-13525
▁연습하거나	-13526
▁연애세포가	-13527
▁연애였는데	-13528
▁연연해하지	-13529
▁열까지밖에	-13530
▁열어보세요	-13531
▁영원했으면	-13532
▁예뻐보이는	-13533
▁예뻐지나봐	-13534
▁예약하세요	-13535
▁오래됐는데	-13536
▁오려나봐요	-13537
▁오해할만한	-13538
▁올려보세요	-13539
▁올려봅니다	-13540
▁외로우니까	-13541
▁외출하세요	-13542
▁왼손잡이가	-13543
▁요구하세요	-13544
▁용기내보는	-13545
▁용기내세요	-13546
▁용서하면서	-13547
▁우선순위로	-13548
▁우선순위를	-13549
▁우선순위면	-13550
▁우정이란게	-13551
▁운동하면서	-13552
▁운명인가요	-13553
▁운명일지도	-13554
▁운전하는거	-13555
▁울어보세요	-13556
▁움직이기가	-13557
▁움츠러들지	-13558
▁원하는대로	-13559
▁웨딩드레스	-13560
▁위기이면서	-13561
▁위로봇이요	-13562
▁위험하네요	-13563
▁유머코드가	-13564
▁유의하세요	-13565
▁음료수라도	-13566
▁의미일까요	-13567
▁이겨냈어요	-13568
▁이겨야해요	-13569
▁이끌어주는	-13570
▁이러는걸까	-13571
▁이뤄보아요	-13572
▁이모티콘을	-13573
▁이별이야기	-13574
▁이별하거나	-13575
▁이사람이다	-13576
▁이상형이야	-13577
▁이성으로서	-13578
▁이성이니까	-13579
▁이성친구가	-13580
▁이야기했던	-13581
▁이해하려고	-13582
▁익숙해져서	-13583
▁익숙해지는	-13584
▁인간이라는	-13585
▁인공눈물을	-13586
▁인사해줬어	-13587
▁일반인보다	-13588
▁일부니까요	-13589
▁일인가봐요	-13590
▁일주일만에	-13591
▁있어요라고	-13592
▁잊지마세요	-13593
▁잊지못하고	-13594
▁자괴감에서	-13595
▁자기개발을	-13596
▁자리니까요	-13597
▁자신감있게	-13598
▁자야하는데	-13599
▁자유로워질	-13600
▁자장면이요	-13601
▁작동하는지	-13602
▁잘못이네요	-13603
▁잘생겼어요	-13604
▁잘지내고있	-13605
▁잘지내는지	-13606
▁잘해줬더니	-13607
▁장거리연애	-13608
▁재미있는거	-13609
▁쟁취하세요	-13610
▁저기압에는	-13611
▁저주할거야	-13612
▁적극적이면	-13613
▁적으니까요	-13614
▁전남자친구	-13615
▁전남친이랑	-13616
▁전남친한테	-13617
▁전여자친구	-13618
▁전여친에게	-13619
▁전해졌으면	-13620
▁절약해봐요	-13621
▁접어두는게	-13622
▁정리되었길	-13623
▁정리될지도	-13624
▁정리해야지	-13625
▁정리해야할	-13626
▁정신적으로	-13627
▁제철과일이	-13628
▁조급해하지	-13629
▁졸린가봐요	-13630
▁좋아하나요	-13631
▁좋아하는걸	-13632
▁좋아했지만	-13633
▁좋았겠어요	-13634
▁좋은것만은	-13635
▁좋을거예요	-13636
▁주당이에요	-13637
▁주실거예요	-13638
▁죽을것같아	-13639
▁준비하면서	-13640
▁준비한만큼	-13641
▁중요한데요	-13642
▁중요합니다	-13643
▁증명자료를	-13644
▁증상이에요	-13645
▁지금처럼만	-13646
▁지나가네요	-13647
▁지나갑니다	-13648
▁지나갔네요	-13649
▁지나갔으면	-13650
▁지내봅시다	-13651
▁지냈나봐요	-13652
▁지켜달라고	-13653
▁지켜보기만	-13654
▁지켜보는게	-13655
▁지하철에서	-13656
▁직설적으로	-13657
▁진출해볼까	-13658
▁질문이네요	-13659
▁짝사랑만이	-13660
▁짝사랑인지	-13661
▁쪼잔하네요	-13662
▁찌푸려지죠	-13663
▁찜질방에서	-13664
▁차단하는게	-13665
▁찬성이에요	-13666
▁참석하는게	-13667
▁찾아올거라	-13668
▁챙겨드리고	-13669
▁챙겨보세요	-13670
▁챙겨야해요	-13671
▁챙겼나봐요	-13672
▁처리하세요	-13673
▁청구하세요	-13674
▁초대하려고	-13675
▁최고입니다	-13676
▁최우선이죠	-13677
▁추천해들요	-13678
▁축하해주고	-13679
▁출퇴근하기	-13680
▁충실하세요	-13681
▁취미생활은	-13682
▁취준생인데	-13683
▁치열해지는	-13684
▁치워주세요	-13685
▁친구로서와	-13686
▁침묵하세요	-13687
▁침착해야지	-13688
▁침해당하기	-13689
▁커플여행이	-13690
▁코인노래방	-13691
▁코코넛오일	-13692
▁크시겠네요	-13693
▁타임머신이	-13694
▁태산이에요	-13695
▁태어났어요	-13696
▁태어났으면	-13697
▁투성이에요	-13698
▁트라우마가	-13699
▁평범하면서	-13700
▁표현이에요	-13701
▁프로그램을	-13702
▁필요하겠죠	-13703
▁필요하지요	-13704
▁필요할지도	-13705
▁필요합니다	-13706
▁하겠습니다	-13707
▁하는거같아	-13708
▁하더라고요	-13709
▁하루였나요	-13710
▁하루하루를	-13711
▁하셔야해요	-13712
▁하시겠네요	-13713
▁할인점에서	-13714
▁해결하라고	-13715
▁해놨나봐요	-13716
▁해야하나봐	-13717
▁해줘보세요	-13718
▁핸드폰없이	-13719
▁했나봅니다	-13720
▁행동이냐에	-13721
▁행동일수도	-13722
▁행복일지도	-13723
▁행복해지기	-13724
▁행복해하는	-13725
▁헤어졌다는	-13726
▁헤어지자네	-13727
▁헤어짐에도	-13728
▁헷갈리나요	-13729
▁헹궈보세요	-13730
▁현상입니다	-13731
▁현실이에요	-13732
▁혼내줄게요	-13733
▁혼전순결이	-13734
▁홈쇼핑에서	-13735
▁확인해봐요	-13736
▁효과적일까	-13737
▁효도하세요	-13738
▁효율적으로	-13739
▁후련하네여	-13740
▁후련하다니	-13741
▁후련하달까	-13742
▁흘러가네요	-13743
▁흘러갑니다	-13744
▁힘들게네요	-13745
▁힘들겠지요	-13746
▁힘들어져요	-13747
▁가능하다면요	-13748
▁가벼움이네요	-13749
▁감수해보세요	-13750
▁같이해보세요	-13751
▁갚아나가세요	-13752
▁게임해보세요	-13753
▁결혼하고싶어	-13754
▁결혼해야할까	-13755
▁경쟁해야하고	-13756
▁경험해보세요	-13757
▁고백해도될까	-13758
▁공감해주는게	-13759
▁공유해보세요	-13760
▁관리해주세요	-13761
▁괜찮아졌다가	-13762
▁괜찮아지세요	-13763
▁구멍이니까요	-13764
▁구별해보세요	-13765
▁그런건가봐요	-13766
▁기다렸나봐요	-13767
▁기다리게했어	-13768
▁기다린다는게	-13769
▁기대되겠네요	-13770
▁기분일꺼에요	-13771
▁기초대사량을	-13772
▁기프트콘으로	-13773
▁긴장되겠어요	-13774
▁긴장했나봐요	-13775
▁까먹었나봐요	-13776
▁끊어버리세요	-13777
▁나쁘셨나봐요	-13778
▁난감하겠어요	-13779
▁날려버리시길	-13780
▁남자사람친구	-13781
▁낭만이라고는	-13782
▁내딛으셨네요	-13783
▁내려보는것도	-13784
▁다니시나봐요	-13785
▁다듬기만해도	-13786
▁단계인가봐요	-13787
▁단단해지세요	-13788
▁당당해지세요	-13789
▁당신이니까요	-13790
▁대인배시군요	-13791
▁데려다줬는데	-13792
▁도와주었다고	-13793
▁돈버는사람은	-13794
▁되돌아보세요	-13795
▁뒤따르니까요	-13796
▁득템해오세요	-13797
▁들어올거예요	-13798
▁들어줄거예요	-13799
▁들여다보세요	-13800
▁들이대보세요	-13801
▁디자이너에게	-13802
▁리드해보세요	-13803
▁마무리하시길	-13804
▁마음가는대로	-13805
▁막막하겠네요	-13806
▁만들더라고요	-13807
▁만들어주세요	-13808
▁만족해야겠지	-13809
▁말씀이신가요	-13810
▁말조심하세요	-13811
▁멍때리는것도	-13812
▁모른척하세요	-13813
▁무궁무진해요	-13814
▁무시해주세요	-13815
▁물어보시나요	-13816
▁물어봐보세요	-13817
▁물어주시다니	-13818
▁바라겠습니다	-13819
▁받아들여지지	-13820
▁받아들이는게	-13821
▁받으셨겠어요	-13822
▁받으시나봐요	-13823
▁발급받으세요	-13824
▁방문해보세요	-13825
▁변화시켜봐요	-13826
▁변화해보세요	-13827
▁병행해보세요	-13828
▁보관해보세요	-13829
▁보여드리세요	-13830
▁복원해보세요	-13831
▁복잡하겠네요	-13832
▁복잡했나봐요	-13833
▁볼매인가봐요	-13834
▁부담스러운데	-13835
▁부담스러운지	-13836
▁부족했나봐요	-13837
▁북치기박치기	-13838
▁분석해보세요	-13839
▁분양받으세요	-13840
▁불타올랐다가	-13841
▁비슷한가봐요	-13842
▁빌렸으니까요	-13843
▁빨래해보세요	-13844
▁뻐근한가봐요	-13845
▁사과해보세요	-13846
▁사내커플인데	-13847
▁사람들이군요	-13848
▁사랑이라는건	-13849
▁사랑자격증을	-13850
▁사랑하고싶어	-13851
▁사랑하나봐요	-13852
▁사랑해보세요	-13853
▁사셔야겠어요	-13854
▁삼재인가봐요	-13855
▁상처받는다고	-13856
▁상황인가봐요	-13857
▁생각하셔야죠	-13858
▁생각해주세요	-13859
▁선택해보세요	-13860
▁설명해보세요	-13861
▁섬유유연제나	-13862
▁성공할거예요	-13863
▁성장하나봐요	-13864
▁소개해보세요	-13865
▁속상할거예요	-13866
▁쇼핑해보세요	-13867
▁숙면하겠네요	-13868
▁스릴있겠네요	-13869
▁스타일이네요	-13870
▁스타트업하면	-13871
▁스터디하자고	-13872
▁식습관이에요	-13873
▁식이요법이랑	-13874
▁신경쓰인다고	-13875
▁실행해보세요	-13876
▁심경인가봐요	-13877
▁싱숭생숭해서	-13878
▁아니었을지도	-13879
▁안전거리확보	-13880
▁않을까싶어요	-13881
▁알려주나봐요	-13882
▁알바해보세요	-13883
▁어울려보세요	-13884
▁언제부터인지	-13885
▁여우인가봐요	-13886
▁여자사람친구	-13887
▁여자친구와의	-13888
▁연락하고싶어	-13889
▁연락해보는게	-13890
▁연습해봅시다	-13891
▁연애스타일이	-13892
▁예뻐지겠네요	-13893
▁오락가락해요	-13894
▁올려봐보세요	-13895
▁요리해드세요	-13896
▁요청해보세요	-13897
▁원동력이예요	-13898
▁위로해줄게요	-13899
▁윗몸일으키기	-13900
▁유지해보세요	-13901
▁응원해주세요	-13902
▁이겨야한다는	-13903
▁이루어졌으면	-13904
▁이웃으로부터	-13905
▁이해못하겠어	-13906
▁인정받으려면	-13907
▁일어나보세요	-13908
▁일어났나봐요	-13909
▁일하시나봐요	-13910
▁있어드릴게요	-13911
▁자연스러우면	-13912
▁자유여행이죠	-13913
▁자취한다는데	-13914
▁잘해야하나봐	-13915
▁잘해줘보세요	-13916
▁전여자친구가	-13917
▁전환해보세요	-13918
▁정들었나봐요	-13919
▁조심해야해요	-13920
▁조심했어야죠	-13921
▁조언해주세요	-13922
▁좋아보이네요	-13923
▁좋아하는건가	-13924
▁좋아하시니까	-13925
▁좋아해주세요	-13926
▁좋으시겠어요	-13927
▁주무셨나봐요	-13928
▁주저리주저리	-13929
▁중고서점에서	-13930
▁중요해졌어요	-13931
▁지원해보세요	-13932
▁짝사랑하는게	-13933
▁차단해보세요	-13934
▁찾아가보세요	-13935
▁찾아갔습니다	-13936
▁채워드릴게요	-13937
▁청소해보세요	-13938
▁청춘이어야죠	-13939
▁초기화하는게	-13940
▁추가해보세요	-13941
▁추세더라구요	-13942
▁충전해주세요	-13943
▁취직이나라뇨	-13944
▁치료해보세요	-13945
▁크리스마스가	-13946
▁크리스마스에	-13947
▁타이밍이네요	-13948
▁타이밍입니다	-13949
▁택배기사님들	-13950
▁포기안한다고	-13951
▁포커페이스를	-13952
▁프라이버시를	-13953
▁피부관리까지	-13954
▁필요하시군요	-13955
▁필요했을텐데	-13956
▁하셨나보군요	-13957
▁하우스웨딩이	-13958
▁한순간이예요	-13959
▁해결해주지는	-13960
▁행복해보여요	-13961
▁행복해지세요	-13962
▁행복해지시길	-13963
▁행복해질려고	-13964
▁현금영수증은	-13965
▁후회하겠네요	-13966
▁흔들리겠어요	-13967
▁희망적이에요	-13968
▁힘드셨겠어요	-13969
▁힘드시겠네요	-13970
▁힘들어졌어요	-13971
▁가벼워질거예요	-13972
▁감기조심하세요	-13973
▁갑작스럽겠네요	-13974
▁강림했나봅니다	-13975
▁거짓말이겠지요	-13976
▁건강습관이네요	-13977
▁건강습관이에요	-13978
▁건들이지마세요	-13979
▁결정이었겠어요	-13980
▁결정이었나봐요	-13981
▁공기정화식물도	-13982
▁궁금하더라고요	-13983
▁기다려지겠네요	-13984
▁기분나쁘겠어요	-13985
▁날이었나봅니다	-13986
▁두근거리겠네요	-13987
▁모으시는거예요	-13988
▁물어보고싶네요	-13989
▁미끄러질뻔했어	-13990
▁발전시켜보세요	-13991
▁백업해놓으세요	-13992
▁보고싶었나봐요	-13993
▁부담스러워하진	-13994
▁사람이었는가를	-13995
▁사랑했으니까요	-13996
▁사춘기로부터의	-13997
▁상종하지마세요	-13998
▁상처받았나봐요	-13999
▁생각할수있어요	-14000
▁생각해드릴게요	-14001
▁소개시켜주세요	-14002
▁수학여행가는데	-14003
▁시간이었을거라	-14004
▁시기였을거예요	-14005
▁신경쓰지마세요	-14006
▁아니셨을거예요	-14007
▁아니었나봅니다	-14008
▁알아주실거예요	-14009
▁앞머리만이라도	-14010
▁애정표현이라고	-14011
▁엮여있는거예요	-14012
▁연락드려보세요	-14013
▁오지랖이었으면	-14014
▁유행하고있어요	-14015
▁음악감상이라고	-14016
▁이야기해주세요	-14017
▁이어나가니까요	-14018
▁이해해줘야할까	-14019
▁익숙해질거예요	-14020
▁인지시켜보세요	-14021
▁잊혀지더라고요	-14022
▁자유로워지세요	-14023
▁자책하지마세요	-14024
▁잔소리해보세요	-14025
▁저평가되어있는	-14026
▁좋아졌나봅니다	-14027
▁좋아하시나봐요	-14028
▁좌절하지마세요	-14029
▁준비하는방법이	-14030
▁채워나가는거죠	-14031
▁초록초록하네요	-14032
▁크리스마스에는	-14033
▁포기하지마세요	-14034
▁프라이버시니까	-14035
▁피곤하신가봐요	-14036
▁필요해보이네요	-14037
▁하게하고싶은데	-14038
▁허례허식이에요	-14039
▁허전하시겠어요	-14040
▁허전하신가봐요	-14041
▁헤어져야하는게	-14042
▁간질간질한가봐요	-14043
▁갑작스러웠나봐요	-14044
▁게스트하우스에서	-14045
▁궁금해하지마세요	-14046
▁데려다주려나봐요	-14047
▁발렌타인데이인데	-14048
▁사춘기인가봅니다	-14049
▁소개시켜드릴게요	-14050
▁소개팅하기로했어	-14051
▁수면양말인가봐요	-14052
▁스트레칭해주세요	-14053
▁인연이었나봅니다	-14054
▁질척거리지마세요	-14055
▁안전거리확보하세요	-14056
',	-14057
.4	-14058
65	-14059
;?	-14060
XX	-14061
▁놨	-14062
▁던	-14063
▁덤	-14064
▁뜰	-14065
▁쎄	-14066
▁육	-14067
▁을	-14068
▁쩔	-14069
▁찡	-14070
▁춤	-14071
▁캔	-14072
▁콘	-14073
▁흡	-14074
▁힐	-14075
가간	-14076
가까	-14077
가물	-14078
가슴	-14079
가자	-14080
각은	-14081
간히	-14082
감수	-14083
갔지	-14084
같습	-14085
거는	-14086
거운	-14087
거울	-14088
걸알	-14089
것이	-14090
게도	-14091
겠는	-14092
결정	-14093
경해	-14094
고만	-14095
고자	-14096
곳도	-14097
곳에	-14098
곳이	-14099
겠져	-14100
견디	-14101
공간	-14102
공장	-14103
괜찮	-14104
국어	-14105
귀가	-14106
극복	-14107
근데	-14108
근처	-14109
금됐	-14110
급기	-14111
기싫	-14112
긴거	-14113
긴게	-14114
긴나	-14115
김치	-14116
꺼워	-14117
껴서	-14118
꼬는	-14119
꾸러	-14120
꾼거	-14121
꿈에	-14122
끼고	-14123
나기	-14124
나만	-14125
나바	-14126
나씩	-14127
나와	-14128
나의	-14129
나지	-14130
날까	-14131
날씨	-14132
날이	-14133
날일	-14134
남지	-14135
내요	-14136
냐면	-14137
너건	-14138
너를	-14139
녀랑	-14140
녀를	-14141
년된	-14142
놀아	-14143
놀이	-14144
놓은	-14145
느껴	-14146
느낌	-14147
느냐	-14148
는건	-14149
는대	-14150
능력	-14151
니고	-14152
니냐	-14153
니라	-14154
닝복	-14155
다를	-14156
다주	-14157
다한	-14158
닦아	-14159
답게	-14160
답답	-14161
대를	-14162
대비	-14163
대에	-14164
던걸	-14165
돌이	-14166
동본	-14167
동사	-14168
동욱	-14169
돼요	-14170
되나	-14171
될듯	-14172
드는	-14173
드려	-14174
드의	-14175
든게	-14176
듣고	-14177
듣는	-14178
들다	-14179
들면	-14180
디나	-14181
때도	-14182
때매	-14183
때의	-14184
똑똑	-14185
뜨문	-14186
띠동	-14187
라나	-14188
란일	-14189
랬어	-14190
럽네	-14191
렀네	-14192
레기	-14193
려다	-14194
려보	-14195
로가	-14196
로소	-14197
로에	-14198
로울	-14199
▁닿	-14200
가길	-14201
거랑	-14202
곳올	-14203
깝게	-14204
꺼라	-14205
느끼	-14206
더워	-14207
독주	-14208
들고	-14209
떠나	-14210
러지	-14211
르듯	-14212
르팍	-14213
를뿐	-14214
름에	-14215
리내	-14216
린거	-14217
립이	-14218
마무	-14219
마셔	-14220
막혀	-14221
만근	-14222
많이	-14223
말아	-14224
말에	-14225
말지	-14226
말투	-14227
말해	-14228
맘이	-14229
먹길	-14230
먹는	-14231
먹은	-14232
먹일	-14233
모르	-14234
모임	-14235
목은	-14236
못이	-14237
못한	-14238
문자	-14239
물은	-14240
미련	-14241
미죠	-14242
미칠	-14243
밀히	-14244
바늘	-14245
바라	-14246
바지	-14247
반짝	-14248
받네	-14249
발한	-14250
발해	-14251
밤에	-14252
밤이	-14253
번에	-14254
법을	-14255
법이	-14256
별로	-14257
보기	-14258
보며	-14259
보세	-14260
보이	-14261
복한	-14262
봐봐	-14263
봐서	-14264
봤던	-14265
부모	-14266
분에	-14267
불쑥	-14268
불이	-14269
비전	-14270
빠져	-14271
빨리	-14272
뿐만	-14273
살랑	-14274
상은	-14275
상태	-14276
상편	-14277
서로	-14278
서방	-14279
서진	-14280
선수	-14281
설레	-14282
성은	-14283
소비	-14284
수는	-14285
수지	-14286
술나	-14287
슬쩍	-14288
시고	-14289
시기	-14290
시로	-14291
시할	-14292
시험	-14293
신대	-14294
신히	-14295
실수	-14296
싫다	-14297
심코	-14298
썸이	-14299
▁띰	-14300
▁웁	-14301
글남	-14302
내지	-14303
두번	-14304
두지	-14305
든다	-14306
들여	-14307
린데	-14308
말걸	-14309
바심	-14310
사해	-14311
생일	-14312
석이	-14313
시점	-14314
쓰기	-14315
쓸까	-14316
아갈	-14317
아닌	-14318
아도	-14319
아들	-14320
아무	-14321
아직	-14322
아픈	-14323
아픔	-14324
안일	-14325
않네	-14326
않아	-14327
않았	-14328
않을	-14329
았나	-14330
앞에	-14331
애가	-14332
앨범	-14333
얘기	-14334
어게	-14335
어난	-14336
어내	-14337
어디	-14338
어리	-14339
어볼	-14340
없다	-14341
없을	-14342
었으	-14343
여여	-14344
여유	-14345
연락	-14346
연예	-14347
염되	-14348
염둥	-14349
영화	-14350
오라	-14351
온데	-14352
용해	-14353
우보	-14354
울만	-14355
원망	-14356
월드	-14357
웠네	-14358
웽웽	-14359
위기	-14360
위로	-14361
위터	-14362
위해	-14363
유가	-14364
을세	-14365
이거	-14366
이를	-14367
이브	-14368
이서	-14369
이유	-14370
인생	-14371
일거	-14372
일시	-14373
일에	-14374
일짜	-14375
일한	-14376
있던	-14377
있으	-14378
잊고	-14379
잊어	-14380
자신	-14381
잔한	-14382
잘못	-14383
잠깐	-14384
잠을	-14385
잤어	-14386
장님	-14387
전공	-14388
전하	-14389
절해	-14390
정류	-14391
제로	-14392
젠가	-14393
져도	-14394
져야	-14395
조선	-14396
졸려	-14397
좋니	-14398
좋은	-14399
구는	-14400
끊었	-14401
넘어	-14402
던히	-14403
듣기	-14404
려자	-14405
먹자	-14406
방에	-14407
봤네	-14408
부림	-14409
빌어	-14410
성형	-14411
심장	-14412
었죠	-14413
왔을	-14414
왕자	-14415
원을	-14416
으러	-14417
을게	-14418
이된	-14419
주반	-14420
주죠	-14421
줄게	-14422
중인	-14423
중한	-14424
즈아	-14425
증은	-14426
지나	-14427
지내	-14428
지진	-14429
직장	-14430
직할	-14431
진행	-14432
질만	-14433
집착	-14434
짝남	-14435
쫄음	-14436
차랑	-14437
차리	-14438
착한	-14439
창이	-14440
창한	-14441
창회	-14442
찾기	-14443
처러	-14444
쳐져	-14445
쳐진	-14446
쳐질	-14447
축제	-14448
축하	-14449
춘거	-14450
취미	-14451
치면	-14452
치법	-14453
치치	-14454
치페	-14455
칠때	-14456
카노	-14457
카톡	-14458
카페	-14459
캄캄	-14460
캔들	-14461
커피	-14462
커홀	-14463
켜서	-14464
코가	-14465
코렛	-14466
콤한	-14467
키울	-14468
탔났	-14469
티를	-14470
티브	-14471
퍼센	-14472
편할	-14473
푸석	-14474
퓨저	-14475
프레	-14476
프사	-14477
픈데	-14478
피자	-14479
하ᅮ	-14480
하거	-14481
하늘	-14482
하듯	-14483
하라	-14484
하세	-14485
할거	-14486
할데	-14487
해낼	-14488
해볼	-14489
해봐	-14490
해소	-14491
해줬	-14492
했고	-14493
호를	-14494
후가	-14495
흡연	-14496
히러	-14497
힌듯	-14498
;;;	-14499
▁긋	-14500
개가	-14501
기울	-14502
남은	-14503
다던	-14504
다툼	-14505
답은	-14506
도와	-14507
되긴	-14508
려니	-14509
밀어	-14510
배달	-14511
보구	-14512
불쌍	-14513
심과	-14514
쑥쑥	-14515
앗어	-14516
져간	-14517
질거	-14518
차피	-14519
터짐	-14520
▁가질	-14521
▁갔네	-14522
▁갔을	-14523
▁같고	-14524
▁같았	-14525
▁같을	-14526
▁개학	-14527
▁건냈	-14528
▁걷는	-14529
▁걸게	-14530
▁결론	-14531
▁결말	-14532
▁계정	-14533
▁고놈	-14534
▁고요	-14535
▁고쳤	-14536
▁구역	-14537
▁구제	-14538
▁귀국	-14539
▁그에	-14540
▁그와	-14541
▁글에	-14542
▁금기	-14543
▁긋는	-14544
▁기빨	-14545
▁깊숙	-14546
▁깜놀	-14547
▁깨가	-14548
▁꺼져	-14549
▁꿈과	-14550
▁꿈속	-14551
▁끊을	-14552
▁끝낸	-14553
▁나내	-14554
▁나른	-14555
▁나위	-14556
▁나죠	-14557
▁내년	-14558
▁내든	-14559
▁넓은	-14560
▁넘나	-14561
▁네일	-14562
▁노나	-14563
▁노메	-14564
▁놀램	-14565
▁느리	-14566
▁니멋	-14567
▁다냐	-14568
▁다름	-14569
▁다섯	-14570
▁다잊	-14571
▁다함	-14572
▁닦아	-14573
▁달랬	-14574
▁담기	-14575
▁답할	-14576
▁대외	-14577
▁대판	-14578
▁더위	-14579
▁덜덜	-14580
▁덜해	-14581
▁덮을	-14582
▁데로	-14583
▁데이	-14584
▁도는	-14585
▁독감	-14586
▁독차	-14587
▁돌이	-14588
▁돼라	-14589
▁됐나	-14590
▁됐내	-14591
▁됐든	-14592
▁되도	-14593
▁되진	-14594
▁될거	-14595
▁두면	-14596
▁둘래	-14597
▁뒤엔	-14598
▁들음	-14599
공개	-14600
구려	-14601
굴에	-14602
급은	-14603
너와	-14604
네ᄒ	-14605
니의	-14606
다의	-14607
두는	-14608
리여	-14609
린대	-14610
스야	-14611
슬퍼	-14612
았길	-14613
어찌	-14614
에선	-14615
여ᅲ	-14616
예감	-14617
운전	-14618
이불	-14619
자야	-14620
진아	-14621
차례	-14622
평해	-14623
풋풋	-14624
▁길죠	-14625
▁나두	-14626
▁뒤집	-14627
▁들죠	-14628
▁들킨	-14629
▁등교	-14630
▁디테	-14631
▁따면	-14632
▁떠냐	-14633
▁떴다	-14634
▁로비	-14635
▁마인	-14636
▁막혔	-14637
▁만담	-14638
▁만두	-14639
▁많터	-14640
▁망고	-14641
▁먹냐	-14642
▁먹네	-14643
▁먹자	-14644
▁명도	-14645
▁명을	-14646
▁명치	-14647
▁모텔	-14648
▁묘해	-14649
▁무감	-14650
▁묻노	-14651
▁물걸	-14652
▁물질	-14653
▁뭐냐	-14654
▁뭐입	-14655
▁미는	-14656
▁미드	-14657
▁미지	-14658
▁밉다	-14659
▁바랐	-14660
▁받죠	-14661
▁발신	-14662
▁밤은	-14663
▁밤을	-14664
▁방이	-14665
▁번이	-14666
▁벌려	-14667
▁법은	-14668
▁베지	-14669
▁변치	-14670
▁별똥	-14671
▁별일	-14672
▁보네	-14673
▁보듬	-14674
▁보래	-14675
▁봐버	-14676
▁부딛	-14677
▁부터	-14678
▁붙일	-14679
▁빈자	-14680
▁빠짐	-14681
▁빨간	-14682
▁뺏길	-14683
▁사게	-14684
▁사서	-14685
▁사소	-14686
▁사흘	-14687
▁살거	-14688
▁살만	-14689
▁삼십	-14690
▁생가	-14691
▁생명	-14692
▁서면	-14693
▁세운	-14694
▁소오	-14695
▁소통	-14696
▁손질	-14697
▁솔탈	-14698
▁숨은	-14699
▁석	-14700
경은	-14701
고통	-14702
기능	-14703
날짜	-14704
닉에	-14705
덥지	-14706
되가	-14707
시니	-14708
십년	-14709
쐬러	-14710
월이	-14711
지쳐	-14712
취직	-14713
할줄	-14714
▁개가	-14715
▁끊은	-14716
▁넣어	-14717
▁말에	-14718
▁맘의	-14719
▁멍충	-14720
▁명과	-14721
▁방정	-14722
▁생선	-14723
▁석박	-14724
▁스윗	-14725
▁시러	-14726
▁시련	-14727
▁싫을	-14728
▁십년	-14729
▁싶아	-14730
▁써도	-14731
▁썸과	-14732
▁썸끝	-14733
▁썸에	-14734
▁썼네	-14735
▁아따	-14736
▁아르	-14737
▁아오	-14738
▁아푸	-14739
▁안됨	-14740
▁안바	-14741
▁안쪽	-14742
▁안함	-14743
▁안힘	-14744
▁않음	-14745
▁알죠	-14746
▁야한	-14747
▁양심	-14748
▁어김	-14749
▁억제	-14750
▁얻을	-14751
▁얼집	-14752
▁업고	-14753
▁없었	-14754
▁에쁘	-14755
▁에혀	-14756
▁연극	-14757
▁오냐	-14758
▁온대	-14759
▁올거	-14760
▁올때	-14761
▁옳고	-14762
▁왜제	-14763
▁운세	-14764
▁원점	-14765
▁으휴	-14766
▁이글	-14767
▁이닦	-14768
▁이따	-14769
▁이럽	-14770
▁이만	-14771
▁이민	-14772
▁이뻤	-14773
▁이주	-14774
▁이케	-14775
▁일본	-14776
▁일해	-14777
▁입냐	-14778
▁입원	-14779
▁있긴	-14780
▁있든	-14781
▁자소	-14782
▁잔해	-14783
▁잠와	-14784
▁장래	-14785
▁재결	-14786
▁재수	-14787
▁저였	-14788
▁전날	-14789
▁점프	-14790
▁제자	-14791
▁주라	-14792
▁주문	-14793
▁주저	-14794
▁주행	-14795
▁지인	-14796
▁직구	-14797
▁진다	-14798
▁진해	-14799
!?	-14800
꿨대	-14801
내리	-14802
넘은	-14803
니는	-14804
돌까	-14805
떨고	-14806
뛰어	-14807
뜨려	-14808
랜드	-14809
반복	-14810
벌이	-14811
볼때	-14812
뻤어	-14813
었고	-14814
으란	-14815
저그	-14816
족냉	-14817
▁과대	-14818
▁벌어	-14819
▁않니	-14820
▁여는	-14821
▁짓을	-14822
▁짧고	-14823
▁짧아	-14824
▁쭉쭉	-14825
▁찍혔	-14826
▁차있	-14827
▁책상	-14828
▁척이	-14829
▁친다	-14830
▁칼답	-14831
▁커졌	-14832
▁커풀	-14833
▁켠에	-14834
▁코딩	-14835
▁타긴	-14836
▁타든	-14837
▁타요	-14838
▁트레	-14839
▁특종	-14840
▁티냄	-14841
▁파란	-14842
▁판정	-14843
▁평이	-14844
▁하얘	-14845
▁하자	-14846
▁한이	-14847
▁한쪽	-14848
▁한테	-14849
▁한폭	-14850
▁해놔	-14851
▁해몽	-14852
▁해본	-14853
▁해온	-14854
▁핸폰	-14855
▁했니	-14856
▁했더	-14857
▁행적	-14858
▁확정	-14859
▁환장	-14860
▁후우	-14861
▁휘리	-14862
▁휘청	-14863
가슴이	-14864
같은게	-14865
같은데	-14866
개월여	-14867
거라고	-14868
거려보	-14869
거리는	-14870
거였나	-14871
거해서	-14872
건가바	-14873
꺼같네	-14874
꿔볼까	-14875
년가까	-14876
년넘은	-14877
년연예	-14878
년이면	-14879
념하게	-14880
놨네요	-14881
누여자	-14882
느껴진	-14883
는거니	-14884
는거에	-14885
는그런	-14886
는정말	-14887
님에게	-14888
다는대	-14889
다는말	-14890
닥이야	-14891
달째에	-14892
당했네	-14893
대로는	-14894
더라면	-14895
던가요	-14896
던데요	-14897
데월드	-14898
도노력	-14899
같데	-14900
건히	-14901
도에	-14902
마니	-14903
모닝	-14904
번쯤	-14905
상종	-14906
았을	-14907
애인	-14908
없고	-14909
용량	-14910
울증	-14911
자인	-14912
젠장	-14913
중심	-14914
▁	-14915
.	-14916
요	-14917
이	-14918
어	-14919
는	-14920
하	-14921
아	-14922
가	-14923
지	-14924
다	-14925
해	-14926
고	-14927
세	-14928
을	-14929
나	-14930
사	-14931
보	-14932
도	-14933
거	-14934
게	-14935
좋	-14936
에	-14937
자	-14938
있	-14939
은	-14940
기	-14941
면	-14942
한	-14943
까	-14944
?	-14945
네	-14946
만	-14947
니	-14948
데	-14949
마	-14950
랑	-14951
예	-14952
서	-14953
그	-14954
겠	-14955
로	-14956
시	-14957
리	-14958
들	-14959
람	-14960
생	-14961
인	-14962
무	-14963
라	-14964
일	-14965
수	-14966
야	-14967
같	-14968
남	-14969
안	-14970
할	-14971
친	-14972
정	-14973
연	-14974
를	-14975
구	-14976
으	-14977
말	-14978
여	-14979
주	-14980
내	-14981
봐	-14982
의	-14983
죠	-14984
음	-14985
없	-14986
싶	-14987
각	-14988
제	-14989
신	-14990
것	-14991
려	-14992
오	-14993
잘	-14994
힘	-14995
너	-14996
대	-14997
상	-14998
간	-14999
많	-15000
별	-15001
더	-15002
바	-15003
않	-15004
했	-15005
스	-15006
진	-15007
부	-15008
되	-15009
애	-15010
전	-15011
드	-15012
락	-15013
었	-15014
건	-15015
저	-15016
때	-15017
모	-15018
헤	-15019
금	-15020
중	-15021
심	-15022
짝	-15023
운	-15024
화	-15025
길	-15026
썸	-15027
혼	-15028
비	-15029
워	-15030
못	-15031
러	-15032
장	-15033
물	-15034
미	-15035
적	-15036
분	-15037
알	-15038
감	-15039
먹	-15040
히	-15041
걸	-15042
습	-15043
래	-15044
당	-15045
우	-15046
받	-15047
테	-15048
행	-15049
결	-15050
소	-15051
선	-15052
달	-15053
날	-15054
르	-15055
직	-15056
좀	-15057
후	-15058
살	-15059
조	-15060
회	-15061
관	-15062
!	-15063
늘	-15064
았	-15065
타	-15066
돼	-15067
든	-15068
방	-15069
될	-15070
동	-15071
녀	-15072
실	-15073
복	-15074
차	-15075
과	-15076
질	-15077
뭐	-15078
른	-15079
찮	-15080
공	-15081
와	-15082
트	-15083
끝	-15084
괜	-15085
속	-15086
원	-15087
계	-15088
처	-15089
치	-15090
필	-15091
잊	-15092
두	-15093
집	-15094
문	-15095
귀	-15096
유	-15097
편	-15098
난	-15099
준	-15100
재	-15101
졌	-15102
경	-15103
런	-15104
던	-15105
답	-15106
줄	-15107
성	-15108
울	-15109
피	-15110
왜	-15111
년	-15112
렇	-15113
식	-15114
떻	-15115
느	-15116
꾸	-15117
볼	-15118
져	-15119
개	-15120
위	-15121
버	-15122
왔	-15123
떨	-15124
입	-15125
현	-15126
작	-15127
배	-15128
번	-15129
노	-15130
눈	-15131
새	-15132
맞	-15133
언	-15134
추	-15135
났	-15136
짜	-15137
또	-15138
법	-15139
잠	-15140
프	-15141
올	-15142
단	-15143
민	-15144
참	-15145
함	-15146
쓰	-15147
학	-15148
디	-15149
따	-15150
싫	-15151
력	-15152
줘	-15153
확	-15154
반	-15155
찾	-15156
겨	-15157
변	-15158
잡	-15159
담	-15160
쉬	-15161
억	-15162
카	-15163
능	-15164
점	-15165
갈	-15166
터	-15167
먼	-15168
얼	-15169
합	-15170
근	-15171
용	-15172
통	-15173
매	-15174
표	-15175
놀	-15176
술	-15177
천	-15178
절	-15179
레	-15180
련	-15181
백	-15182
누	-15183
럴	-15184
돌	-15185
머	-15186
불	-15187
맛	-15188
루	-15189
릴	-15190
발	-15191
긴	-15192
몰	-15193
호	-15194
듯	-15195
움	-15196
봅	-15197
꿈	-15198
충	-15199
랄	-15200
교	-15201
막	-15202
톡	-15203
청	-15204
파	-15205
약	-15206
접	-15207
증	-15208
영	-15209
돈	-15210
1	-15211
군	-15212
됐	-15213
취	-15214
싸	-15215
월	-15216
젠	-15217
큼	-15218
강	-15219
놓	-15220
닌	-15221
명	-15222
빠	-15223
째	-15224
곳	-15225
된	-15226
랍	-15227
외	-15228
떠	-15229
망	-15230
쁜	-15231
택	-15232
겼	-15233
믿	-15234
순	-15235
쉽	-15236
크	-15237
걱	-15238
국	-15239
임	-15240
갑	-15241
께	-15242
름	-15243
커	-15244
2	-15245
씩	-15246
업	-15247
맘	-15248
셨	-15249
앞	-15250
축	-15251
키	-15252
럽	-15253
였	-15254
온	-15255
,	-15256
열	-15257
폰	-15258
황	-15259
짐	-15260
설	-15261
휴	-15262
냥	-15263
슨	-15264
침	-15265
텐	-15266
뭘	-15267
쁘	-15268
슬	-15269
3	-15270
떤	-15271
럼	-15272
님	-15273
엄	-15274
궁	-15275
렸	-15276
최	-15277
허	-15278
켜	-15279
혀	-15280
착	-15281
쳐	-15282
출	-15283
태	-15284
양	-15285
격	-15286
족	-15287
험	-15288
급	-15289
록	-15290
잔	-15291
깨	-15292
존	-15293
포	-15294
갔	-15295
늦	-15296
린	-15297
환	-15298
즐	-15299
픈	-15300
형	-15301
ᅲ	-15302
몸	-15303
죽	-15304
체	-15305
떡	-15306
본	-15307
벌	-15308
책	-15309
극	-15310
냐	-15311
덜	-15312
산	-15313
종	-15314
챙	-15315
풀	-15316
목	-15317
써	-15318
첫	-15319
넘	-15320
플	-15321
란	-15322
항	-15323
멋	-15324
완	-15325
찍	-15326
티	-15327
낌	-15328
뿐	-15329
팅	-15330
향	-15331
붙	-15332
밥	-15333
셔	-15334
웃	-15335
견	-15336
응	-15337
초	-15338
활	-15339
글	-15340
손	-15341
평	-15342
끔	-15343
꼭	-15344
맨	-15345
숙	-15346
씨	-15347
폭	-15348
흘	-15349
즘	-15350
큰	-15351
탈	-15352
0	-15353
굴	-15354
뜻	-15355
줬	-15356
투	-15357
~	-15358
욕	-15359
짓	-15360
낼	-15361
닐	-15362
색	-15363
씀	-15364
곤	-15365
둘	-15366
봤	-15367
빨	-15368
뻐	-15369
뭔	-15370
솔	-15371
페	-15372
5	-15373
슴	-15374
풍	-15375
메	-15376
밀	-15377
코	-15378
꽃	-15379
병	-15380
척	-15381
냈	-15382
딱	-15383
똑	-15384
몇	-15385
졸	-15386
핸	-15387
껴	-15388
밤	-15389
며	-15390
벽	-15391
4	-15392
픔	-15393
독	-15394
찬	-15395
쳤	-15396
갖	-15397
듣	-15398
랐	-15399
림	-15400
옷	-15401
덤	-15402
밌	-15403
랜	-15404
승	-15405
역	-15406
짧	-15407
퇴	-15408
괴	-15409
끊	-15410
밖	-15411
봄	-15412
쓸	-15413
익	-15414
칭	-15415
핑	-15416
S	-15417
뒤	-15418
빼	-15419
펴	-15420
흐	-15421
6	-15422
꺼	-15423
료	-15424
박	-15425
베	-15426
빌	-15427
숨	-15428
악	-15429
칠	-15430
웠	-15431
흔	-15432
끼	-15433
얘	-15434
엇	-15435
깐	-15436
녕	-15437
득	-15438
렵	-15439
롭	-15440
렀	-15441
멀	-15442
깊	-15443
뎌	-15444
춰	-15445
케	-15446
곧	-15447
골	-15448
낫	-15449
석	-15450
높	-15451
삶	-15452
읽	-15453
잖	-15454
찌	-15455
채	-15456
헷	-15457
념	-15458
등	-15459
멍	-15460
숭	-15461
염	-15462
킨	-15463
퍼	-15464
꼬	-15465
냉	-15466
철	-15467
s	-15468
겁	-15469
꿨	-15470
뜨	-15471
벗	-15472
창	-15473
탁	-15474
끄	-15475
맥	-15476
섭	-15477
쇼	-15478
쩌	-15479
쯤	-15480
판	-15481
꿀	-15482
덧	-15483
션	-15484
십	-15485
클	-15486
특	-15487
ᄒ	-15488
덕	-15489
북	-15490
센	-15491
옆	-15492
팔	-15493
효	-15494
랬	-15495
례	-15496
립	-15497
뻔	-15498
엔	-15499
쟁	-15500
쩔	-15501
틀	-15502
틱	-15503
품	-15504
헛	-15505
ᅮ	-15506
김	-15507
깝	-15508
꿔	-15509
놈	-15510
딩	-15511
류	-15512
밍	-15513
삼	-15514
콩	-15515
패	-15516
희	-15517
권	-15518
냄	-15519
멈	-15520
싱	-15521
쌓	-15522
육	-15523
낭	-15524
땐	-15525
론	-15526
릿	-15527
삭	-15528
샀	-15529
엽	-15530
죄	-15531
즈	-15532
걷	-15533
놔	-15534
눠	-15535
됩	-15536
량	-15537
셀	-15538
턴	-15539
텨	-15540
토	-15541
획	-15542
귄	-15543
됨	-15544
브	-15545
뿌	-15546
액	-15547
7	-15548
N	-15549
깍	-15550
깔	-15551
뀌	-15552
녁	-15553
닥	-15554
벼	-15555
봇	-15556
웨	-15557
푸	-15558
혹	-15559
8	-15560
뀔	-15561
끈	-15562
뉴	-15563
뒷	-15564
듭	-15565
쐬	-15566
잤	-15567
흡	-15568
귈	-15569
긍	-15570
꼼	-15571
농	-15572
둬	-15573
딸	-15574
슷	-15575
썼	-15576
옴	-15577
컨	-15578
흥	-15579
갚	-15580
깜	-15581
끌	-15582
닫	-15583
렌	-15584
블	-15585
쓴	-15586
씹	-15587
왕	-15588
춥	-15589
콜	-15590
푹	-15591
ᄏ	-15592
걔	-15593
곰	-15594
규	-15595
낮	-15596
넌	-15597
넣	-15598
딴	-15599
뛰	-15600
링	-15601
뽑	-15602
씻	-15603
쪽	-15604
찰	-15605
춘	-15606
칼	-15607
컴	-15608
9	-15609
n	-15610
값	-15611
곁	-15612
깎	-15613
끗	-15614
낸	-15615
널	-15616
듬	-15617
렘	-15618
맙	-15619
몽	-15620
밝	-15621
봉	-15622
빛	-15623
빡	-15624
옥	-15625
잃	-15626
첩	-15627
콘	-15628
콤	-15629
탄	-15630
탔	-15631
헬	-15632
혔	-15633
겹	-15634
껏	-15635
꾹	-15636
닉	-15637
딪	-15638
랫	-15639
룩	-15640
뤄	-15641
맡	-15642
벚	-15643
빈	-15644
샤	-15645
앉	-15646
잇	-15647
탕	-15648
털	-15649
힌	-15650
'	-15651
검	-15652
낀	-15653
납	-15654
넓	-15655
녹	-15656
닮	-15657
둔	-15658
땀	-15659
땅	-15660
띄	-15661
롱	-15662
벤	-15663
엉	-15664
잼	-15665
짠	-15666
찔	-15667
콕	-15668
툰	-15669
팍	-15670
A	-15671
낄	-15672
늙	-15673
땡	-15674
뚝	-15675
렬	-15676
령	-15677
뢰	-15678
볶	-15679
빵	-15680
뻑	-15681
뽀	-15682
쁠	-15683
섬	-15684
씁	-15685
압	-15686
얻	-15687
왤	-15688
웬	-15689
젖	-15690
짱	-15691
킁	-15692
템	-15693
푼	-15694
햇	-15695
훈	-15696
객	-15697
곡	-15698
긋	-15699
꼈	-15700
꽤	-15701
끓	-15702
낙	-15703
낳	-15704
뒀	-15705
뜰	-15706
뱃	-15707
송	-15708
싼	-15709
쌩	-15710
앗	-15711
징	-15712
쩍	-15713
쪄	-15714
쪼	-15715
찼	-15716
춤	-15717
층	-15718
켠	-15719
탐	-15720
툴	-15721
휘	-15722
;	-15723
곱	-15724
광	-15725
궈	-15726
낚	-15727
눅	-15728
늠	-15729
닝	-15730
닿	-15731
돋	-15732
둠	-15733
둥	-15734
뒹	-15735
똥	-15736
롤	-15737
릎	-15738
묻	-15739
밑	-15740
밟	-15741
벅	-15742
범	-15743
쉴	-15744
슈	-15745
쌍	-15746
썹	-15747
쑥	-15748
옳	-15749
욱	-15750
젯	-15751
찜	-15752
찢	-15753
첨	-15754
퀴	-15755
톱	-15756
툼	-15757
틋	-15758
팩	-15759
팸	-15760
퓨	-15761
헥	-15762
흑	-15763
겟	-15764
긁	-15765
꾼	-15766
댈	-15767
렛	-15768
렜	-15769
률	-15770
릅	-15771
묵	-15772
볍	-15773
빚	-15774
쁨	-15775
삐	-15776
싹	-15777
쌈	-15778
쎄	-15779
쏟	-15780
쏠	-15781
씌	-15782
엮	-15783
왠	-15784
윗	-15785
쫄	-15786
쫌	-15787
찐	-15788
촉	-15789
츠	-15790
켰	-15791
쿨	-15792
탓	-15793
틈	-15794
팀	-15795
팠	-15796
폼	-15797
헌	-15798
홀	-15799
힐	-15800
B	-15801
C	-15802
a	-15803
갠	-15804
겪	-15805
굳	-15806
껄	-15807
꼰	-15808
꽉	-15809
넷	-15810
놨	-15811
댓	-15812
덥	-15813
딘	-15814
딛	-15815
떼	-15816
뚫	-15817
램	-15818
릇	-15819
맴	-15820
맷	-15821
맺	-15822
멘	-15823
몫	-15824
밉	-15825
빙	-15826
빴	-15827
샌	-15828
앨	-15829
엠	-15830
욜	-15831
웹	-15832
율	-15833
좌	-15834
줌	-15835
쥐	-15836
짚	-15837
짰	-15838
쭉	-15839
쭤	-15840
총	-15841
촬	-15842
컥	-15843
컷	-15844
컸	-15845
텁	-15846
텔	-15847
팁	-15848
팬	-15849
펑	-15850
풋	-15851
핫	-15852
훔	-15853
흠	-15854
-	-15855
갱	-15856
겉	-15857
겐	-15858
깰	-15859
꽝	-15860
꿰	-15861
넋	-15862
뇌	-15863
눌	-15864
눕	-15865
닷	-15866
댄	-15867
돕	-15868
됬	-15869
딜	-15870
땜	-15871
떴	-15872
뜬	-15873
띠	-15874
랖	-15875
랙	-15876
렐	-15877
렴	-15878
륵	-15879
몬	-15880
묘	-15881
샜	-15882
숫	-15883
썩	-15884
앱	-15885
얽	-15886
엊	-15887
엿	-15888
옵	-15889
왓	-15890
젤	-15891
졋	-15892
짼	-15893
측	-15894
캬	-15895
쿠	-15896
쿵	-15897
킬	-15898
턱	-15899
텀	-15900
텅	-15901
툭	-15902
헐	-15903
헹	-15904
홈	-15905
홧	-15906
%	-15907
D	-15908
O	-15909
P	-15910
X	-15911
c	-15912
g	-15913
o	-15914
걍	-15915
겜	-15916
괘	-15917
균	-15918
귤	-15919
깃	-15920
깅	-15921
깬	-15922
깼	-15923
꼴	-15924
꽂	-15925
꿩	-15926
넛	-15927
넥	-15928
넹	-15929
녔	-15930
논	-15931
뇨	-15932
눴	-15933
닦	-15934
닭	-15935
댔	-15936
덩	-15937
덮	-15938
뚱	-15939
띰	-15940
띵	-15941
랭	-15942
렉	-15943
룰	-15944
룸	-15945
룽	-15946
륜	-15947
릭	-15948
맹	-15949
뮤	-15950
밭	-15951
벨	-15952
볕	-15953
붓	-15954
뷔	-15955
빽	-15956
뺏	-15957
뻤	-15958
뽕	-15959
뿅	-15960
삔	-15961
샐	-15962
샘	-15963
섞	-15964
섣	-15965
섯	-15966
섰	-15967
섹	-15968
솜	-15969
쇠	-15970
숏	-15971
썰	-15972
쑤	-15973
씰	-15974
씸	-15975
얇	-15976
옛	-15977
옮	-15978
왼	-15979
웁	-15980
웽	-15981
윙	-15982
젊	-15983
젝	-15984
줍	-15985
쥬	-15986
즙	-15987
짤	-15988
짬	-15989
쨌	-15990
쪘	-15991
찡	-15992
찹	-15993
챘	-15994
쳇	-15995
칩	-15996
캄	-15997
캐	-15998
캔	-15999
